{
  "version": "1.0",
  "truncation": null,
  "padding": null,
  "added_tokens": [
    {
      "id": 0,
      "content": "[UNK]",
      "single_word": false,
      "lstrip": false,
      "rstrip": false,
      "normalized": false,
      "special": true
    },
    {
      "id": 1,
      "content": "[CLS]",
      "single_word": false,
      "lstrip": false,
      "rstrip": false,
      "normalized": false,
      "special": true
    },
    {
      "id": 2,
      "content": "[SEP]",
      "single_word": false,
      "lstrip": false,
      "rstrip": false,
      "normalized": false,
      "special": true
    },
    {
      "id": 3,
      "content": "[PAD]",
      "single_word": false,
      "lstrip": false,
      "rstrip": false,
      "normalized": false,
      "special": true
    },
    {
      "id": 4,
      "content": "[MASK]",
      "single_word": false,
      "lstrip": false,
      "rstrip": false,
      "normalized": false,
      "special": true
    }
  ],
  "normalizer": null,
  "pre_tokenizer": {
    "type": "Whitespace"
  },
  "post_processor": null,
  "decoder": null,
  "model": {
    "type": "BPE",
    "dropout": null,
    "unk_token": "[UNK]",
    "continuing_subword_prefix": null,
    "end_of_word_suffix": null,
    "fuse_unk": false,
    "byte_fallback": false,
    "ignore_merges": false,
    "vocab": {
      "[UNK]": 0,
      "[CLS]": 1,
      "[SEP]": 2,
      "[PAD]": 3,
      "[MASK]": 4,
      "ఁ": 5,
      "ం": 6,
      "ః": 7,
      "అ": 8,
      "ఆ": 9,
      "ఇ": 10,
      "ఈ": 11,
      "ఉ": 12,
      "ఊ": 13,
      "ఋ": 14,
      "ఎ": 15,
      "ఏ": 16,
      "ఐ": 17,
      "ఒ": 18,
      "ఓ": 19,
      "ఔ": 20,
      "క": 21,
      "ఖ": 22,
      "గ": 23,
      "ఘ": 24,
      "ఙ": 25,
      "చ": 26,
      "ఛ": 27,
      "జ": 28,
      "ఝ": 29,
      "ఞ": 30,
      "ట": 31,
      "ఠ": 32,
      "డ": 33,
      "ఢ": 34,
      "ణ": 35,
      "త": 36,
      "థ": 37,
      "ద": 38,
      "ధ": 39,
      "న": 40,
      "ప": 41,
      "ఫ": 42,
      "బ": 43,
      "భ": 44,
      "మ": 45,
      "య": 46,
      "ర": 47,
      "ఱ": 48,
      "ల": 49,
      "ళ": 50,
      "వ": 51,
      "శ": 52,
      "ష": 53,
      "స": 54,
      "హ": 55,
      "ా": 56,
      "ి": 57,
      "ీ": 58,
      "ు": 59,
      "ూ": 60,
      "ృ": 61,
      "ౄ": 62,
      "ె": 63,
      "ే": 64,
      "ై": 65,
      "ొ": 66,
      "ో": 67,
      "ౌ": 68,
      "్": 69,
      "ౖ": 70,
      "ౠ": 71,
      "ౢ": 72,
      "౦": 73,
      "౧": 74,
      "౨": 75,
      "౩": 76,
      "౪": 77,
      "౬": 78,
      "౭": 79,
      "౮": 80,
      "౯": 81,
      "౼": 82,
      "న్": 83,
      "ని": 84,
      "స్": 85,
      "ర్": 86,
      "రు": 87,
      "ంద": 88,
      "లు": 89,
      "్ర": 90,
      "కు": 91,
      "నా": 92,
      "గా": 93,
      "ట్": 94,
      "రా": 95,
      "మా": 96,
      "ంట": 97,
      "క్": 98,
      "రి": 99,
      "వా": 100,
      "డు": 101,
      "కి": 102,
      "కా": 103,
      "ను": 104,
      "డి": 105,
      "లో": 106,
      "లా": 107,
      "ంది": 108,
      "్య": 109,
      "ల్": 110,
      "స్త": 111,
      "చి": 112,
      "సి": 113,
      "ప్": 114,
      "న్న": 115,
      "లే": 116,
      "చే": 117,
      "గు": 118,
      "లి": 119,
      "వి": 120,
      "వు": 121,
      "న్నా": 122,
      "ప్ప": 123,
      "ది": 124,
      "దు": 125,
      "బా": 126,
      "ట్ట": 127,
      "మీ": 128,
      "డా": 129,
      "పా": 130,
      "సా": 131,
      "ంత": 132,
      "ళ్": 133,
      "చా": 134,
      "ప్ర": 135,
      "నీ": 136,
      "కో": 137,
      "యి": 138,
      "తు": 139,
      "నే": 140,
      "ము": 141,
      "చె": 142,
      "సు": 143,
      "చ్": 144,
      "మ్": 145,
      "తి": 146,
      "గ్": 147,
      "పో": 148,
      "ద్": 149,
      "కొ": 150,
      "వ్": 151,
      "యా": 152,
      "దా": 153,
      "మి": 154,
      "పి": 155,
      "ంటే": 156,
      "చూ": 157,
      "ండి": 158,
      "పె": 159,
      "త్": 160,
      "ంచి": 161,
      "ష్": 162,
      "టి": 163,
      "డ్": 164,
      "క్క": 165,
      "ళ్ళ": 166,
      "స్తు": 167,
      "పు": 168,
      "వే": 169,
      "్యా": 170,
      "దే": 171,
      "సిని": 172,
      "తా": 173,
      "సినిమా": 174,
      "తె": 175,
      "అన్న": 176,
      "సూ": 177,
      "ప్పు": 178,
      "బు": 179,
      "కూ": 180,
      "వీ": 181,
      "పర్": 182,
      "రో": 183,
      "ందు": 184,
      "ంచ": 185,
      "న్ని": 186,
      "మె": 187,
      "లేదు": 188,
      "ంగ్": 189,
      "ండ": 190,
      "చాలా": 191,
      "సూపర్": 192,
      "ంగా": 193,
      "తే": 194,
      "కే": 195,
      "తో": 196,
      "సం": 197,
      "రే": 198,
      "ంటు": 199,
      "గారు": 200,
      "మే": 201,
      "మన": 202,
      "గి": 203,
      "వె": 204,
      "ారు": 205,
      "ంటి": 206,
      "రం": 207,
      "్రీ": 208,
      "న్నారు": 209,
      "అని": 210,
      "జయ": 211,
      "పాట": 212,
      "రె": 213,
      "తీ": 214,
      "త్ర": 215,
      "బ్": 216,
      "రామ": 217,
      "చ్చి": 218,
      "నికి": 219,
      "ల్ల": 220,
      "జా": 221,
      "డం": 222,
      "ఒక": 223,
      "చెప్ప": 224,
      "ట్టు": 225,
      "య్య": 226,
      "స్ట": 227,
      "ట్టి": 228,
      "కూడా": 229,
      "టీ": 230,
      "హి": 231,
      "బాగు": 232,
      "సే": 233,
      "జు": 234,
      "వర్": 235,
      "జ్": 236,
      "మ్మ": 237,
      "డీ": 238,
      "వాళ్ళ": 239,
      "వ్వు": 240,
      "జీ": 241,
      "భా": 242,
      "క్ష": 243,
      "స్కి": 244,
      "శ్రీ": 245,
      "లీ": 246,
      "ప్పుడు": 247,
      "మీరు": 248,
      "స్కిట్": 249,
      "ండా": 250,
      "న్స్": 251,
      "్రా": 252,
      "శా": 253,
      "క్కు": 254,
      "నం": 255,
      "త్త": 256,
      "ఎవ": 257,
      "చు": 258,
      "జై": 259,
      "మూ": 260,
      "ఎంత": 261,
      "టు": 262,
      "మంచి": 263,
      "ఉంది": 264,
      "మో": 265,
      "ఇం": 266,
      "కీ": 267,
      "అంద": 268,
      "లకు": 269,
      "యం": 270,
      "స్తా": 271,
      "తెలు": 272,
      "చేసి": 273,
      "రూ": 274,
      "ైన": 275,
      "స్తే": 276,
      "ష్ట": 277,
      "లని": 278,
      "గారి": 279,
      "ంచా": 280,
      "యు": 281,
      "బాబు": 282,
      "కర్": 283,
      "అంటే": 284,
      "ద్ద": 285,
      "సాంగ్": 286,
      "పే": 287,
      "చేయ": 288,
      "ఇలా": 289,
      "మొ": 290,
      "సీ": 291,
      "మంది": 292,
      "జి": 293,
      "హా": 294,
      "అయి": 295,
      "ధి": 296,
      "ంటా": 297,
      "ఎందు": 298,
      "మరి": 299,
      "నువ్వు": 300,
      "లను": 301,
      "కుంటు": 302,
      "తం": 303,
      "పీ": 304,
      "ంట్": 305,
      "స్ట్": 306,
      "బర్": 307,
      "సార్": 308,
      "కానీ": 309,
      "తుంది": 310,
      "అంత": 311,
      "డే": 312,
      "లం": 313,
      "గురు": 314,
      "వ్వ": 315,
      "య్": 316,
      "ధా": 317,
      "కామె": 318,
      "కాదు": 319,
      "బాగా": 320,
      "స్తుంది": 321,
      "వై": 322,
      "మాత్ర": 323,
      "ల్లో": 324,
      "ఒక్క": 325,
      "ఉన్న": 326,
      "యో": 327,
      "ంద్ర": 328,
      "వారి": 329,
      "ణ్": 330,
      "జగ": 331,
      "గ్ర": 332,
      "కోరు": 333,
      "నేను": 334,
      "బాగుంది": 335,
      "అను": 336,
      "గొ": 337,
      "పూ": 338,
      "అది": 339,
      "బ్ర": 340,
      "నమ": 341,
      "స్త్": 342,
      "సిన": 343,
      "ఇది": 344,
      "లె": 345,
      "వాలి": 346,
      "కోసం": 347,
      "గే": 348,
      "ైనా": 349,
      "రోజు": 350,
      "జబర్": 351,
      "లేక": 352,
      "పం": 353,
      "దీ": 354,
      "భి": 355,
      "యూ": 356,
      "పెట్ట": 357,
      "అర్": 358,
      "నాకు": 359,
      "తెలి": 360,
      "ంచు": 361,
      "జగన్": 362,
      "జీవి": 363,
      "ఉండ": 364,
      "రీ": 365,
      "చూడ": 366,
      "ఎందుకు": 367,
      "వచ్": 368,
      "వాళ్ళు": 369,
      "కదా": 370,
      "య్యా": 371,
      "బి": 372,
      "వ్య": 373,
      "స్తున్నా": 374,
      "జబర్ద": 375,
      "ంలో": 376,
      "యే": 377,
      "గో": 378,
      "టర్": 379,
      "మీద": 380,
      "క్కడ": 381,
      "శ్": 382,
      "జబర్దస్త్": 383,
      "వచ్చి": 384,
      "ార్": 385,
      "కుండా": 386,
      "ప్రజ": 387,
      "ఇంకా": 388,
      "ఫ్యా": 389,
      "మైన": 390,
      "సుకో": 391,
      "మూవీ": 392,
      "లై": 393,
      "నిజ": 394,
      "మార్": 395,
      "పోయి": 396,
      "రాజ": 397,
      "ండ్": 398,
      "్రి": 399,
      "ఎలా": 400,
      "కె": 401,
      "శి": 402,
      "మ్ము": 403,
      "మాట": 404,
      "సుకు": 405,
      "డ్డి": 406,
      "గురువు": 407,
      "భు": 408,
      "అవ": 409,
      "సె": 410,
      "నె": 411,
      "వర": 412,
      "వారు": 413,
      "పొ": 414,
      "బో": 415,
      "శం": 416,
      "ఉన్నా": 417,
      "తెలుగు": 418,
      "త్య": 419,
      "పరి": 420,
      "రించి": 421,
      "స్తారు": 422,
      "ఆర్": 423,
      "కం": 424,
      "డై": 425,
      "తన": 426,
      "ట్లు": 427,
      "ట్లా": 428,
      "స్తున్నారు": 429,
      "వీడి": 430,
      "ఏమి": 431,
      "ఇలాంటి": 432,
      "కామెడీ": 433,
      "దొ": 434,
      "వన్": 435,
      "సలు": 436,
      "నీకు": 437,
      "తున్నా": 438,
      "అలా": 439,
      "అవు": 440,
      "ఉంటే": 441,
      "ద్య": 442,
      "అనే": 443,
      "దో": 444,
      "బె": 445,
      "వాళ్": 446,
      "స్టార్": 447,
      "కోరుకుంటు": 448,
      "యన": 449,
      "చ్చ": 450,
      "అభి": 451,
      "స్థ": 452,
      "మీకు": 453,
      "మ్మా": 454,
      "ళ్ళు": 455,
      "హీ": 456,
      "మని": 457,
      "పెద్ద": 458,
      "ధ్య": 459,
      "న్ను": 460,
      "వాడు": 461,
      "కృ": 462,
      "గం": 463,
      "వం": 464,
      "రికి": 465,
      "ఎన్ని": 466,
      "ణం": 467,
      "పై": 468,
      "సమ": 469,
      "స్వా": 470,
      "ఆది": 471,
      "గె": 472,
      "ందే": 473,
      "యాం": 474,
      "రాజు": 475,
      "నమః": 476,
      "తప్ప": 477,
      "ద్దు": 478,
      "తారు": 479,
      "రెడ్డి": 480,
      "కళ": 481,
      "సో": 482,
      "ంటుంది": 483,
      "ల్లె": 484,
      "ఇప్పుడు": 485,
      "టం": 486,
      "ట్ర": 487,
      "ల్లి": 488,
      "డానికి": 489,
      "రెక్": 490,
      "ందా": 491,
      "మాట్లా": 492,
      "పోతే": 493,
      "హ్": 494,
      "ీర్": 495,
      "హీరో": 496,
      "పవన్": 497,
      "కులు": 498,
      "ప్రతి": 499,
      "చూపి": 500,
      "దేవు": 501,
      "వడం": 502,
      "ర్య": 503,
      "లేని": 504,
      "హిట్": 505,
      "క్కువ": 506,
      "ండు": 507,
      "టై": 508,
      "ల్లు": 509,
      "గురించి": 510,
      "ముందు": 511,
      "ష్టం": 512,
      "ప్పటి": 513,
      "ర్తి": 514,
      "ప్రా": 515,
      "చెయ్య": 516,
      "పెట్టి": 517,
      "ద్ర": 518,
      "బొ": 519,
      "ంటారు": 520,
      "విష": 521,
      "కొడు": 522,
      "టా": 523,
      "ణి": 524,
      "పని": 525,
      "వాత": 526,
      "నుంచి": 527,
      "ంచిన": 528,
      "ఇంత": 529,
      "రుగు": 530,
      "క్స్": 531,
      "ప్రే": 532,
      "ంధ": 533,
      "అన్ని": 534,
      "కొని": 535,
      "పెట్టు": 536,
      "గల": 537,
      "ఫ్": 538,
      "హే": 539,
      "్యాణ్": 540,
      "చెప్పి": 541,
      "అమ్మ": 542,
      "ఎవరు": 543,
      "పార్": 544,
      "మాత్రం": 545,
      "ంగ": 546,
      "శారు": 547,
      "పిల్ల": 548,
      "కళ్యాణ్": 549,
      "కంటే": 550,
      "సుధ": 551,
      "గ్గు": 552,
      "పడి": 553,
      "నాలు": 554,
      "సారి": 555,
      "సుధీర్": 556,
      "ంచే": 557,
      "ఇవ్వ": 558,
      "కల": 559,
      "జే": 560,
      "నో": 561,
      "మళ్ళ": 562,
      "షో": 563,
      "విజయ": 564,
      "తున్నారు": 565,
      "వీడియో": 566,
      "ఇంద్ర": 567,
      "నూ": 568,
      "ంటూ": 569,
      "కోరుకుంటున్నా": 570,
      "అసలు": 571,
      "షి": 572,
      "సమా": 573,
      "నుండి": 574,
      "చేసే": 575,
      "డాన్స్": 576,
      "పేరు": 577,
      "జె": 578,
      "నాయ": 579,
      "ష్ణ": 580,
      "యాంకర్": 581,
      "చంద్ర": 582,
      "రామ్": 583,
      "రిగి": 584,
      "చ్చు": 585,
      "గ్గ": 586,
      "చూసి": 587,
      "వర్మ": 588,
      "వల్ల": 589,
      "వాలని": 590,
      "ద్దా": 591,
      "టింగ్": 592,
      "ఫ్యాన్స్": 593,
      "ఎక్కడ": 594,
      "మధ్య": 595,
      "ులు": 596,
      "చేసిన": 597,
      "ఉండా": 598,
      "లతో": 599,
      "న్య": 600,
      "తున్న": 601,
      "జ్ఞ": 602,
      "అర్థ": 603,
      "ఎం": 604,
      "ట్టే": 605,
      "బ్బు": 606,
      "మళ్ళీ": 607,
      "కలి": 608,
      "బ్బ": 609,
      "గొప్ప": 610,
      "మను": 611,
      "ట్టా": 612,
      "ళ్లు": 613,
      "డ్డ": 614,
      "మ్య": 615,
      "్రె": 616,
      "అందరి": 617,
      "దె": 618,
      "ర్మ": 619,
      "ల్లా": 620,
      "గారికి": 621,
      "అందు": 622,
      "ణా": 623,
      "నవ్వు": 624,
      "బీ": 625,
      "లర్": 626,
      "సై": 627,
      "ల్ని": 628,
      "పోయా": 629,
      "సినిమాలు": 630,
      "తెలియ": 631,
      "ఉన్నారు": 632,
      "కారం": 633,
      "స్తూ": 634,
      "ళ్లి": 635,
      "ములు": 636,
      "ద్ధ": 637,
      "ఓం": 638,
      "పంచ": 639,
      "వాడి": 640,
      "స్టర్": 641,
      "అన్నా": 642,
      "ఇష్టం": 643,
      "సర్": 644,
      "లాంటి": 645,
      "ంతో": 646,
      "మరియు": 647,
      "పార్టీ": 648,
      "అద్": 649,
      "తొ": 650,
      "తరు": 651,
      "హం": 652,
      "కున్న": 653,
      "సాధి": 654,
      "స్తున్న": 655,
      "భాస్": 656,
      "ఎంతమంది": 657,
      "ఎక్కువ": 658,
      "లకి": 659,
      "షన్": 660,
      "హ్మ": 661,
      "ఇంద్రజ": 662,
      "ఏం": 663,
      "తంగా": 664,
      "గాడు": 665,
      "రియ": 666,
      "ంచాలి": 667,
      "లైక్": 668,
      "రాజకీ": 669,
      "స్వామి": 670,
      "క్రి": 671,
      "చిరం": 672,
      "లేదా": 673,
      "మాత్రమే": 674,
      "పడ": 675,
      "మై": 676,
      "అన్నయ్య": 677,
      "అభిమా": 678,
      "విజయం": 679,
      "దయ": 680,
      "లలో": 681,
      "శు": 682,
      "చెత్త": 683,
      "ంచండి": 684,
      "మెగా": 685,
      "మొత్త": 686,
      "అద్భు": 687,
      "ఆయన": 688,
      "కార్": 689,
      "చిక్కు": 690,
      "తులు": 691,
      "కామెంట్": 692,
      "కృష్ణ": 693,
      "ఉండాలి": 694,
      "అయ్యా": 695,
      "క్ర": 696,
      "హు": 697,
      "న్యూ": 698,
      "ప్రపంచ": 699,
      "చ్చా": 700,
      "మనసు": 701,
      "అనిపి": 702,
      "అదే": 703,
      "అమ్మా": 704,
      "నంద": 705,
      "భూ": 706,
      "కొత్త": 707,
      "రేయ్": 708,
      "తప్పు": 709,
      "పట్టి": 710,
      "మంత": 711,
      "కుంటే": 712,
      "కార": 713,
      "కాని": 714,
      "విన": 715,
      "యాలి": 716,
      "హింద": 717,
      "క్షన్": 718,
      "మొత్తం": 719,
      "దూ": 720,
      "రావు": 721,
      "చేయండి": 722,
      "మొద": 723,
      "ట్రై": 724,
      "కొడుకు": 725,
      "డబ్బు": 726,
      "దర్": 727,
      "వల": 728,
      "వంద": 729,
      "రాఘ": 730,
      "న్నీ": 731,
      "గుర్": 732,
      "వుంది": 733,
      "వారికి": 734,
      "ర్తిగా": 735,
      "చిరంజీవి": 736,
      "ఉంటా": 737,
      "చం": 738,
      "టో": 739,
      "ఫీ": 740,
      "మర్": 741,
      "మహే": 742,
      "సరి": 743,
      "క్కి": 744,
      "కాం": 745,
      "ల్లే": 746,
      "లేరు": 747,
      "తుకు": 748,
      "కూడ": 749,
      "మాటలు": 750,
      "బెస్ట్": 751,
      "జ్ఞా": 752,
      "ఇంట": 753,
      "ఉంటుంది": 754,
      "డో": 755,
      "తలు": 756,
      "పడు": 757,
      "ఫా": 758,
      "బట్టి": 759,
      "భగ": 760,
      "రాష్ట": 761,
      "దేశం": 762,
      "సార్లు": 763,
      "టే": 764,
      "నలు": 765,
      "పర": 766,
      "పక్క": 767,
      "లంగా": 768,
      "సర": 769,
      "నువ్": 770,
      "్యం": 771,
      "చేస్తున్నారు": 772,
      "కొడ": 773,
      "చూడా": 774,
      "మెంట్": 775,
      "ండె": 776,
      "భాస్కర్": 777,
      "తర్": 778,
      "మహా": 779,
      "వాల": 780,
      "ప్రభు": 781,
      "చెప్": 782,
      "రెక్టర్": 783,
      "ద్దాం": 784,
      "రాఘవ": 785,
      "అన": 786,
      "జన": 787,
      "థి": 788,
      "దగ్గ": 789,
      "కున్నా": 790,
      "గాని": 791,
      "రాం": 792,
      "మాకు": 793,
      "న్నో": 794,
      "చెప్పా": 795,
      "అర్థం": 796,
      "అయ్య": 797,
      "అధి": 798,
      "ఆడ": 799,
      "ఇదే": 800,
      "ఎప్పుడు": 801,
      "జడ్": 802,
      "దరి": 803,
      "రగ": 804,
      "హై": 805,
      "కుంటా": 806,
      "క్తి": 807,
      "వులు": 808,
      "పాల్": 809,
      "ంతి": 810,
      "ద్ది": 811,
      "దాలు": 812,
      "మహేష్": 813,
      "జో": 814,
      "తను": 815,
      "పద": 816,
      "ఫి": 817,
      "ేది": 818,
      "గాడి": 819,
      "చేసా": 820,
      "చేశారు": 821,
      "యాలు": 822,
      "పుడు": 823,
      "బ్బా": 824,
      "భార": 825,
      "లీజ్": 826,
      "ఎంతో": 827,
      "అందరూ": 828,
      "వచ్చా": 829,
      "పోయింది": 830,
      "రియల్": 831,
      "కండి": 832,
      "మర": 833,
      "వది": 834,
      "సొ": 835,
      "చేస్తే": 836,
      "కొం": 837,
      "అయితే": 838,
      "వచ్చిన": 839,
      "నిజం": 840,
      "ంబ": 841,
      "కని": 842,
      "గ్రా": 843,
      "ణు": 844,
      "తూ": 845,
      "దవ": 846,
      "ఫు": 847,
      "డుగు": 848,
      "డితే": 849,
      "లాగా": 850,
      "మనస్": 851,
      "ఇద్ద": 852,
      "ఏడు": 853,
      "నిర్": 854,
      "ర్చు": 855,
      "చిన్న": 856,
      "ంతు": 857,
      "చెప్పు": 858,
      "చెబు": 859,
      "యాక్": 860,
      "హిందు": 861,
      "ంచారు": 862,
      "అయినా": 863,
      "ట్రైలర్": 864,
      "ప్రభుత్": 865,
      "కర": 866,
      "కల్": 867,
      "ఫో": 868,
      "బ్యా": 869,
      "వత్": 870,
      "షా": 871,
      "లాక్": 872,
      "చేస్తా": 873,
      "దుర్": 874,
      "బాధ": 875,
      "దాని": 876,
      "రెండు": 877,
      "టీవీ": 878,
      "పూర్": 879,
      "ప్రజలు": 880,
      "వరకు": 881,
      "డైలా": 882,
      "విషయం": 883,
      "జన్": 884,
      "ప్రసా": 885,
      "పిచ్చి": 886,
      "దేశ": 887,
      "బ్రో": 888,
      "ప్రేమ": 889,
      "అప్పుడు": 890,
      "ఆలో": 891,
      "ఇచ్చి": 892,
      "కథ": 893,
      "డూ": 894,
      "రణ్": 895,
      "వాయి": 896,
      "ప్రో": 897,
      "చెప్పండి": 898,
      "ఎవరి": 899,
      "అంతే": 900,
      "వచ్చింది": 901,
      "నిజంగా": 902,
      "అమ్మాయి": 903,
      "హిందూ": 904,
      "ఇప్పటి": 905,
      "నల్": 906,
      "యండి": 907,
      "స్వ": 908,
      "నాన్న": 909,
      "కాలం": 910,
      "చేస్తున్నా": 911,
      "రేష్": 912,
      "ంచాలని": 913,
      "ద్యో": 914,
      "దేవుడు": 915,
      "తర్వాత": 916,
      "చరి": 917,
      "తల": 918,
      "ధన్య": 919,
      "రవి": 920,
      "ందో": 921,
      "ట్ల": 922,
      "లేకుండా": 923,
      "ళ్ళి": 924,
      "బ్లాక్": 925,
      "చెప్పారు": 926,
      "లేకపోతే": 927,
      "వ్యూ": 928,
      "సుకోండి": 929,
      "డైరెక్టర్": 930,
      "గెలి": 931,
      "తరువాత": 932,
      "అంటా": 933,
      "ఏమ": 934,
      "ఏంట": 935,
      "గీ": 936,
      "ధం": 937,
      "నమ్మ": 938,
      "మళ్": 939,
      "వస్తుంది": 940,
      "కుటు": 941,
      "మాస్": 942,
      "కాలు": 943,
      "త్తు": 944,
      "తెలంగా": 945,
      "వచ్చే": 946,
      "చంద్రబాబు": 947,
      "ఫుల్": 948,
      "మళ్లీ": 949,
      "నచ్చి": 950,
      "బే": 951,
      "రష్": 952,
      "నిన్ను": 953,
      "వాన్": 954,
      "లేవు": 955,
      "చేసుకు": 956,
      "చెం": 957,
      "చూసే": 958,
      "వేరే": 959,
      "జాత": 960,
      "ట్టిన": 961,
      "సీపీ": 962,
      "జిక్": 963,
      "అలాగే": 964,
      "అవుతుంది": 965,
      "నూక": 966,
      "కోరుకుంటున్నాను": 967,
      "వాయిస్": 968,
      "ధన్యవా": 969,
      "కరి": 970,
      "చీ": 971,
      "జరిగి": 972,
      "ధర్మ": 973,
      "లవ్": 974,
      "వరి": 975,
      "స్య": 976,
      "్యో": 977,
      "సింది": 978,
      "చాల": 979,
      "ంటున్నా": 980,
      "తీసే": 981,
      "సీరియల్": 982,
      "వాళ్లు": 983,
      "చెప్పిన": 984,
      "నువ్వే": 985,
      "ప్రసాద్": 986,
      "ఎదు": 987,
      "కన": 988,
      "ఛా": 989,
      "డ్రా": 990,
      "పవర్": 991,
      "బూ": 992,
      "షం": 993,
      "మాన": 994,
      "డిన": 995,
      "పాల": 996,
      "పెళ్లి": 997,
      "దేవి": 998,
      "కూతు": 999,
      "ంచడం": 1000,
      "ఉండదు": 1001,
      "స్థా": 1002,
      "దయచేసి": 1003,
      "దగ్గర": 1004,
      "అక్క": 1005,
      "ఓవర్": 1006,
      "దమ్ము": 1007,
      "వద్దు": 1008,
      "కుడు": 1009,
      "సులు": 1010,
      "చ్చే": 1011,
      "చూస్తే": 1012,
      "తాడు": 1013,
      "ందుకు": 1014,
      "తెలుసు": 1015,
      "చేసింది": 1016,
      "పెట్టా": 1017,
      "త్యం": 1018,
      "మ్యూ": 1019,
      "భగవాన్": 1020,
      "చరిత్ర": 1021,
      "తెలంగాణ": 1022,
      "ంగి": 1023,
      "అవి": 1024,
      "ఆమె": 1025,
      "ఉద్యో": 1026,
      "జనా": 1027,
      "వస్తా": 1028,
      "శీ": 1029,
      "రులు": 1030,
      "డికి": 1031,
      "గుండె": 1032,
      "త్రి": 1033,
      "అంతా": 1034,
      "అవకా": 1035,
      "మనిషి": 1036,
      "రాష్ట్ర": 1037,
      "కొంచెం": 1038,
      "కనిపి": 1039,
      "ఆంధ": 1040,
      "కలు": 1041,
      "కన్నా": 1042,
      "కష్ట": 1043,
      "కరెక్": 1044,
      "తమైన": 1045,
      "ధు": 1046,
      "ఫ్రె": 1047,
      "రువు": 1048,
      "కుల": 1049,
      "రాలు": 1050,
      "కావాలి": 1051,
      "నులు": 1052,
      "త్తి": 1053,
      "ంచుకో": 1054,
      "వచ్చు": 1055,
      "గోపాల్": 1056,
      "గురువుగారు": 1057,
      "నూకరాజు": 1058,
      "ఎస్": 1059,
      "నై": 1060,
      "బంగా": 1061,
      "రక": 1062,
      "రని": 1063,
      "వో": 1064,
      "వంటి": 1065,
      "శే": 1066,
      "సౌ": 1067,
      "సద్దాం": 1068,
      "హో": 1069,
      "ర్ట్": 1070,
      "రాయ": 1071,
      "రాదు": 1072,
      "రాము": 1073,
      "ంటె": 1074,
      "డుగ్గు": 1075,
      "కాబట్టి": 1076,
      "లోనే": 1077,
      "సిగ్గు": 1078,
      "పోయే": 1079,
      "ద్వా": 1080,
      "బుల్లె": 1081,
      "మేము": 1082,
      "టువంటి": 1083,
      "బ్రహ్మ": 1084,
      "ండ్స్": 1085,
      "డైలాగ్": 1086,
      "ఏంటి": 1087,
      "ఏదో": 1088,
      "బ్రా": 1089,
      "ొక్క": 1090,
      "నిజా": 1091,
      "మాయ": 1092,
      "వార్": 1093,
      "చేశా": 1094,
      "లిన": 1095,
      "ంతా": 1096,
      "ప్రశ్": 1097,
      "ముఖ": 1098,
      "కొట్టు": 1099,
      "టికి": 1100,
      "సంవత్": 1101,
      "త్రం": 1102,
      "అయిన": 1103,
      "వ్యవ": 1104,
      "సమస్య": 1105,
      "రాజకీయ": 1106,
      "ఇంటర్": 1107,
      "ంపు": 1108,
      "అబ్బా": 1109,
      "ఎన్నో": 1110,
      "జరుగు": 1111,
      "డె": 1112,
      "దృ": 1113,
      "దని": 1114,
      "ప్యా": 1115,
      "బల": 1116,
      "బస్టర్": 1117,
      "వస్తే": 1118,
      "న్యా": 1119,
      "నాశ": 1120,
      "చూసిన": 1121,
      "వీడు": 1122,
      "తీసుకు": 1123,
      "ంచాడు": 1124,
      "ఉండే": 1125,
      "యేటర్": 1126,
      "మనుష": 1127,
      "ఫ్రెండ్స్": 1128,
      "రై": 1129,
      "ర్రి": 1130,
      "ట్లో": 1131,
      "చిరు": 1132,
      "లేడీ": 1133,
      "మిలీ": 1134,
      "కేష్": 1135,
      "పాటలు": 1136,
      "క్షలు": 1137,
      "మోహ": 1138,
      "ప్రజల": 1139,
      "గలరు": 1140,
      "సమాజ": 1141,
      "మ్యూజిక్": 1142,
      "గర్": 1143,
      "పనికి": 1144,
      "భయ": 1145,
      "మృ": 1146,
      "రొ": 1147,
      "లక్": 1148,
      "డిచి": 1149,
      "మీడి": 1150,
      "యిన్": 1151,
      "ద్ధి": 1152,
      "దాన్ని": 1153,
      "దేశా": 1154,
      "చేయడం": 1155,
      "పోయిన": 1156,
      "ప్రపంచం": 1157,
      "కూడదు": 1158,
      "ఆలోచి": 1159,
      "ంగు": 1160,
      "అవ్": 1161,
      "ఎపి": 1162,
      "పైన": 1163,
      "ఫూ": 1164,
      "బయ": 1165,
      "మం": 1166,
      "ళి": 1167,
      "సరం": 1168,
      "నితి": 1169,
      "గాలి": 1170,
      "న్నే": 1171,
      "చేసుకో": 1172,
      "వున్నా": 1173,
      "పాపం": 1174,
      "సుకొని": 1175,
      "పోలీ": 1176,
      "పోతుంది": 1177,
      "కొన్ని": 1178,
      "దానికి": 1179,
      "డ్డు": 1180,
      "కుంటున్నా": 1181,
      "వైసీపీ": 1182,
      "ఉన్నాయి": 1183,
      "మాట్లాడు": 1184,
      "మెగాస్టార్": 1185,
      "దరిద్ర": 1186,
      "ధన్యవాదాలు": 1187,
      "ఆంధ్ర": 1188,
      "ఎపిసో": 1189,
      "నితిన్": 1190,
      "అడ": 1191,
      "ఆల్": 1192,
      "కరో": 1193,
      "చో": 1194,
      "చక్క": 1195,
      "జ్యో": 1196,
      "టె": 1197,
      "తమ": 1198,
      "మరో": 1199,
      "మతం": 1200,
      "ట్యూ": 1201,
      "యాన్ని": 1202,
      "ంచింది": 1203,
      "ష్టి": 1204,
      "స్తుంటే": 1205,
      "ప్పుడే": 1206,
      "తీసి": 1207,
      "చెప్పే": 1208,
      "క్షి": 1209,
      "శాంతి": 1210,
      "ఫ్యామిలీ": 1211,
      "స్థి": 1212,
      "జెస్": 1213,
      "దెబ్బ": 1214,
      "అందుకే": 1215,
      "సాధించాలని": 1216,
      "ఎదురు": 1217,
      "మీడియా": 1218,
      "ఎప్పు": 1219,
      "కంటి": 1220,
      "గౌ": 1221,
      "చంద": 1222,
      "డవ": 1223,
      "తల్లి": 1224,
      "దం": 1225,
      "ధవ": 1226,
      "లొ": 1227,
      "వయ": 1228,
      "ాల": 1229,
      "మామ": 1230,
      "క్కా": 1231,
      "కాల": 1232,
      "చేస్తారు": 1233,
      "గులు": 1234,
      "వున్న": 1235,
      "ళ్ల": 1236,
      "చారు": 1237,
      "ముస": 1238,
      "సుదీ": 1239,
      "దేవ": 1240,
      "ంగ్లీ": 1241,
      "సంబ": 1242,
      "బాగుంటుంది": 1243,
      "స్కిట్స్": 1244,
      "అందరికి": 1245,
      "రోజులు": 1246,
      "జీవితం": 1247,
      "థియేటర్": 1248,
      "జడ్జి": 1249,
      "హిందువు": 1250,
      "సుదీర్": 1251,
      "అక్కడ": 1252,
      "ఇక్కడ": 1253,
      "ఇచ్చా": 1254,
      "కళ్ళు": 1255,
      "డమే": 1256,
      "మౌ": 1257,
      "సంతో": 1258,
      "కుని": 1259,
      "కుంటూ": 1260,
      "గానే": 1261,
      "రావాలి": 1262,
      "రిక": 1263,
      "వాల్": 1264,
      "న్నె": 1265,
      "విధా": 1266,
      "బాల": 1267,
      "యాక్షన్": 1268,
      "చూసా": 1269,
      "ండ్రి": 1270,
      "మనం": 1271,
      "టీం": 1272,
      "టీమ్": 1273,
      "యుడు": 1274,
      "వారిని": 1275,
      "గ్రే": 1276,
      "పండు": 1277,
      "దొంగ": 1278,
      "వాళ్ల": 1279,
      "యాక్టింగ్": 1280,
      "కూతురు": 1281,
      "అవకాశం": 1282,
      "ఎపిసోడ్": 1283,
      "జ్యోతి": 1284,
      "అత": 1285,
      "అడుగు": 1286,
      "ఎవ్వ": 1287,
      "ఏమీ": 1288,
      "ఒకే": 1289,
      "ఒరేయ్": 1290,
      "నన్ను": 1291,
      "లవ": 1292,
      "లంటే": 1293,
      "వృ": 1294,
      "ర్లు": 1295,
      "కుక్క": 1296,
      "ట్స్": 1297,
      "రాల": 1298,
      "కారు": 1299,
      "ప్లీజ్": 1300,
      "విన్న": 1301,
      "త్మ": 1302,
      "పురా": 1303,
      "వీళ్ళ": 1304,
      "ంటున్నారు": 1305,
      "గిన": 1306,
      "తీయ": 1307,
      "ఇంకో": 1308,
      "పూర్తిగా": 1309,
      "నమస్": 1310,
      "మార్చ": 1311,
      "న్యూస్": 1312,
      "భూమి": 1313,
      "డబ్బులు": 1314,
      "కుటుంబ": 1315,
      "ధర్మం": 1316,
      "ద్వారా": 1317,
      "బ్రాహ్మ": 1318,
      "నాశనం": 1319,
      "అస్": 1320,
      "అంటారు": 1321,
      "ఓటు": 1322,
      "కైనా": 1323,
      "తర": 1324,
      "నవ్": 1325,
      "పల్లె": 1326,
      "ఫే": 1327,
      "ఫై": 1328,
      "యె": 1329,
      "యై": 1330,
      "యొక్క": 1331,
      "లక్ష": 1332,
      "ాలు": 1333,
      "ర్ర": 1334,
      "ందని": 1335,
      "రావడం": 1336,
      "చేయా": 1337,
      "మీరే": 1338,
      "నీతి": 1339,
      "పున": 1340,
      "వేరు": 1341,
      "మనో": 1342,
      "వెం": 1343,
      "టీడీ": 1344,
      "ఇంక": 1345,
      "దీని": 1346,
      "శ్వ": 1347,
      "తెలియదు": 1348,
      "కొడకా": 1349,
      "ఇంటర్వ్యూ": 1350,
      "ఫూర్తిగా": 1351,
      "అస్సలు": 1352,
      "అడి": 1353,
      "అవ్వ": 1354,
      "ఇక": 1355,
      "క్రీ": 1356,
      "తగ్": 1357,
      "త్యా": 1358,
      "దండ": 1359,
      "ఫస్ట్": 1360,
      "రణ": 1361,
      "శో": 1362,
      "సంద": 1363,
      "లువ": 1364,
      "కునే": 1365,
      "సిం": 1366,
      "లింగ్": 1367,
      "పోతా": 1368,
      "వేసుకోండి": 1369,
      "తేజ": 1370,
      "వెల్": 1371,
      "వెధవ": 1372,
      "రూపా": 1373,
      "ఎందుకంటే": 1374,
      "అర్ధం": 1375,
      "ఫ్యాన్": 1376,
      "నిజమే": 1377,
      "శివా": 1378,
      "పెట్టిన": 1379,
      "బొక్క": 1380,
      "అందరికీ": 1381,
      "దర్శ": 1382,
      "మనస్ఫూర్తిగా": 1383,
      "శేఖ": 1384,
      "డిచికి": 1385,
      "బయట": 1386,
      "ట్యూబ్": 1387,
      "అంది": 1388,
      "ఉప": 1389,
      "కంగా": 1390,
      "గూ": 1391,
      "టూ": 1392,
      "పట్టు": 1393,
      "సహ": 1394,
      "సనా": 1395,
      "సరే": 1396,
      "ెస్": 1397,
      "రాయి": 1398,
      "రావాలని": 1399,
      "ంటది": 1400,
      "డియ": 1401,
      "లోకి": 1402,
      "సికా": 1403,
      "చేతి": 1404,
      "విని": 1405,
      "డాలి": 1406,
      "పాటి": 1407,
      "చాలు": 1408,
      "ముస్": 1409,
      "పోర్ట్": 1410,
      "ద్ధా": 1411,
      "కొట్ట": 1412,
      "వేల": 1413,
      "రోహి": 1414,
      "ండీ": 1415,
      "వెళ్లి": 1416,
      "జాగ్ర": 1417,
      "స్టో": 1418,
      "శాస్త": 1419,
      "గారిని": 1420,
      "పేద": 1421,
      "కుంటున్నారు": 1422,
      "చూడండి": 1423,
      "మాట్లాడ": 1424,
      "టానికి": 1425,
      "పెట్టుకో": 1426,
      "నాయనా": 1427,
      "అనిపిస్తుంది": 1428,
      "జన్మ": 1429,
      "కరెక్ట్": 1430,
      "సౌమ్య": 1431,
      "కరోనా": 1432,
      "జెస్సికా": 1433,
      "టీడీపీ": 1434,
      "ఇందు": 1435,
      "ఇష్ట": 1436,
      "కళ్ళ": 1437,
      "చదు": 1438,
      "తంత": 1439,
      "తయా": 1440,
      "తమ్ము": 1441,
      "తక్కువ": 1442,
      "తండ్రి": 1443,
      "పండి": 1444,
      "రైనా": 1445,
      "వస్తు": 1446,
      "వ్యా": 1447,
      "వలం": 1448,
      "హత్య": 1449,
      "స్క్రి": 1450,
      "కులం": 1451,
      "నాలి": 1452,
      "గానీ": 1453,
      "లాగే": 1454,
      "చేయాలి": 1455,
      "విన్నా": 1456,
      "న్నాయి": 1457,
      "ప్పా": 1458,
      "బాస్": 1459,
      "ప్రవీ": 1460,
      "మ్మి": 1461,
      "రోజా": 1462,
      "కేవలం": 1463,
      "బాగుండ": 1464,
      "భార్య": 1465,
      "వ్యక్తి": 1466,
      "కెట్": 1467,
      "కోరుకుంటున్న": 1468,
      "బీజే": 1469,
      "గుర్తు": 1470,
      "కాంక్షలు": 1471,
      "ఫాన్స్": 1472,
      "ఇద్దరు": 1473,
      "నచ్చింది": 1474,
      "రష్మీ": 1475,
      "బంగారం": 1476,
      "మోహన్": 1477,
      "ఆనంద": 1478,
      "ఈయన": 1479,
      "ఎంట": 1480,
      "ఎప్పటి": 1481,
      "చై": 1482,
      "చరణ్": 1483,
      "టప్": 1484,
      "నరేష్": 1485,
      "పది": 1486,
      "పప్పు": 1487,
      "పడే": 1488,
      "బై": 1489,
      "మల్లె": 1490,
      "మారు": 1491,
      "కాపా": 1492,
      "నుక": 1493,
      "స్తో": 1494,
      "గుడ్": 1495,
      "విద్య": 1496,
      "ళ్ళా": 1497,
      "పుట్టా": 1498,
      "అన్నీ": 1499,
      "సంగీ": 1500,
      "వెళ్ళి": 1501,
      "య్యో": 1502,
      "వైద్య": 1503,
      "మాత్రే": 1504,
      "పెట్టారు": 1505,
      "చూడలేక": 1506,
      "పోయినా": 1507,
      "నెల": 1508,
      "ఎంతమందికి": 1509,
      "శుభా": 1510,
      "వ్యవస్థ": 1511,
      "స్థితి": 1512,
      "ఇందులో": 1513,
      "బీజేపీ": 1514,
      "అంట": 1515,
      "ఇంగ్లీ": 1516,
      "ఈటీవీ": 1517,
      "ఊరు": 1518,
      "కడు": 1519,
      "డర్": 1520,
      "మత": 1521,
      "మతా": 1522,
      "లక్కు": 1523,
      "వచ": 1524,
      "సపోర్ట్": 1525,
      "ొచ్చు": 1526,
      "ర్థ": 1527,
      "లుగా": 1528,
      "మార": 1529,
      "మారి": 1530,
      "కాక": 1531,
      "కాకుండా": 1532,
      "ల్స్": 1533,
      "ప్ట్": 1534,
      "చేస్తూ": 1535,
      "పాత": 1536,
      "కోటి": 1537,
      "నేర్చు": 1538,
      "తోపు": 1539,
      "మ్మల్ని": 1540,
      "శ్రీదేవి": 1541,
      "ఉన్నది": 1542,
      "అనేది": 1543,
      "ప్రాణం": 1544,
      "చెయ్యండి": 1545,
      "సైకో": 1546,
      "అయ్యి": 1547,
      "ముఖ్య": 1548,
      "జాగ్రత్త": 1549,
      "ప్రవీణ్": 1550,
      "ఇంటి": 1551,
      "ఉందా": 1552,
      "ఎదవ": 1553,
      "గరిక": 1554,
      "చది": 1555,
      "నచ్చ": 1556,
      "యర్": 1557,
      "రంగా": 1558,
      "ష్య": 1559,
      "సత్య": 1560,
      "్రు": 1561,
      "కుర్": 1562,
      "రావ": 1563,
      "రాను": 1564,
      "రాకేష్": 1565,
      "లిం": 1566,
      "విధ": 1567,
      "విలువ": 1568,
      "న్నాడు": 1569,
      "ప్పి": 1570,
      "బాబా": 1571,
      "ంతం": 1572,
      "తుంటే": 1573,
      "చూస్తున్నా": 1574,
      "తాయి": 1575,
      "కేక": 1576,
      "మనకు": 1577,
      "పాటు": 1578,
      "వాళ్ళని": 1579,
      "యువ": 1580,
      "కర్మ": 1581,
      "అయింది": 1582,
      "హీరోయిన్": 1583,
      "పిల్లలు": 1584,
      "అభిమాని": 1585,
      "హువా": 1586,
      "వలన": 1587,
      "కాంగ్ర": 1588,
      "చూడాలి": 1589,
      "రాంప్రసాద్": 1590,
      "పాలన": 1591,
      "సంవత్స": 1592,
      "కంటిన్యూ": 1593,
      "శేఖర్": 1594,
      "సనాతన": 1595,
      "చదువు": 1596,
      "శుభాకాంక్షలు": 1597,
      "అర": 1598,
      "అల్": 1599,
      "అప్పు": 1600,
      "అండ్": 1601,
      "ఎన్": 1602,
      "గతా": 1603,
      "చర్": 1604,
      "జర్": 1605,
      "టన": 1606,
      "ట్రా": 1607,
      "ధర": 1608,
      "నటు": 1609,
      "పంచు": 1610,
      "మరీ": 1611,
      "రౌ": 1612,
      "కులా": 1613,
      "నాడు": 1614,
      "గాల": 1615,
      "రాధ": 1616,
      "మాల": 1617,
      "మాలిన": 1618,
      "రికీ": 1619,
      "వారం": 1620,
      "కార్య": 1621,
      "డిని": 1622,
      "డిపి": 1623,
      "స్తి": 1624,
      "చేయి": 1625,
      "లిరి": 1626,
      "వింటు": 1627,
      "దిల్": 1628,
      "పాదా": 1629,
      "కోస": 1630,
      "కొట్టి": 1631,
      "మించిన": 1632,
      "టిల్లు": 1633,
      "వేసి": 1634,
      "వేస్ట్": 1635,
      "మేర": 1636,
      "వెన్నె": 1637,
      "వాళ్ళకి": 1638,
      "స్కిట్లు": 1639,
      "మందికి": 1640,
      "పెట్టండి": 1641,
      "బిల్": 1642,
      "పరిష్": 1643,
      "టైం": 1644,
      "చెప్పింది": 1645,
      "కలిసి": 1646,
      "అద్భుతమైన": 1647,
      "కామెంట్స్": 1648,
      "మొదలు": 1649,
      "జ్ఞానం": 1650,
      "భారత": 1651,
      "ఇచ్చిన": 1652,
      "ప్రోగ్రా": 1653,
      "వయసు": 1654,
      "శివాయ": 1655,
      "రోహిణి": 1656,
      "స్టోరీ": 1657,
      "ఇంగ్లీష్": 1658,
      "అల": 1659,
      "అరేయ్": 1660,
      "అంటున్నారు": 1661,
      "ఉంటారు": 1662,
      "ఎక్": 1663,
      "ఎక్క": 1664,
      "ఏద": 1665,
      "ఏది": 1666,
      "ఓట్లు": 1667,
      "కన్న": 1668,
      "ఖా": 1669,
      "పచ్చ": 1670,
      "ఫలి": 1671,
      "భో": 1672,
      "వరు": 1673,
      "నియా": 1674,
      "ట్లేదు": 1675,
      "రాజ్": 1676,
      "రిలీజ్": 1677,
      "కావాలని": 1678,
      "చేస్తుంది": 1679,
      "పాది": 1680,
      "ప్రి": 1681,
      "నీవు": 1682,
      "పోతున్నా": 1683,
      "పోవడం": 1684,
      "కొంత": 1685,
      "యాద": 1686,
      "మిస్": 1687,
      "త్వం": 1688,
      "టిల్": 1689,
      "పుట్టిన": 1690,
      "వేయ": 1691,
      "తాలు": 1692,
      "సినిమాలో": 1693,
      "స్టే": 1694,
      "బాగున్నాయి": 1695,
      "ఎవరూ": 1696,
      "మోడీ": 1697,
      "స్తాడు": 1698,
      "స్తాను": 1699,
      "తెలుసుకో": 1700,
      "సాంగ్స్": 1701,
      "ఇలాగే": 1702,
      "అదిరి": 1703,
      "యూట్యూబ్": 1704,
      "తెలిసి": 1705,
      "ప్రజలకు": 1706,
      "అవసరం": 1707,
      "దొరక": 1708,
      "గెటప్": 1709,
      "ల్లారా": 1710,
      "అందులో": 1711,
      "పోయారు": 1712,
      "అద్భుతం": 1713,
      "పక్కన": 1714,
      "చూడాలని": 1715,
      "చేసారు": 1716,
      "వదిలే": 1717,
      "ఫోన్": 1718,
      "వస్తాయి": 1719,
      "నైస్": 1720,
      "స్తోంది": 1721,
      "అం": 1722,
      "ఇవ్": 1723,
      "ఇమ్మా": 1724,
      "ఏము": 1725,
      "ఒరే": 1726,
      "కన్నీ": 1727,
      "చని": 1728,
      "ఛీ": 1729,
      "దశ": 1730,
      "నట్టు": 1731,
      "ఫర్": 1732,
      "మహ": 1733,
      "యత": 1734,
      "రక్": 1735,
      "రంటే": 1736,
      "లూ": 1737,
      "శత": 1738,
      "షే": 1739,
      "నిద్ర": 1740,
      "ర్యా": 1741,
      "ందీ": 1742,
      "కుమార్": 1743,
      "రాసిన": 1744,
      "్యూ": 1745,
      "స్త్రీ": 1746,
      "విజ": 1747,
      "వివరి": 1748,
      "వుండ": 1749,
      "దారు": 1750,
      "త్రు": 1751,
      "త్వర": 1752,
      "పులు": 1753,
      "తారా": 1754,
      "మెరా": 1755,
      "తీసిన": 1756,
      "చ్చితంగా": 1757,
      "స్టె": 1758,
      "సేన": 1759,
      "వర్ష": 1760,
      "డీజే": 1761,
      "ఎవడు": 1762,
      "ఇంకొ": 1763,
      "ఇంట్లో": 1764,
      "అనుకుంటా": 1765,
      "బిడ్డ": 1766,
      "స్తున్నాడు": 1767,
      "కెమెరా": 1768,
      "శివ": 1769,
      "బోర్": 1770,
      "వాళ్లకు": 1771,
      "అభిమానులు": 1772,
      "రవితేజ": 1773,
      "డ్రామా": 1774,
      "రాష్ట్రం": 1775,
      "బుల్లెట్": 1776,
      "మనుషు": 1777,
      "చక్కగా": 1778,
      "తగ్గి": 1779,
      "తమ్ముడు": 1780,
      "కాంగ్రెస్": 1781,
      "అన్నారు": 1782,
      "అల్లు": 1783,
      "అతను": 1784,
      "ఆఫ్": 1785,
      "ఇండి": 1786,
      "నన్న": 1787,
      "పతి": 1788,
      "బతుకు": 1789,
      "మడ": 1790,
      "మ్యా": 1791,
      "మైనా": 1792,
      "యంత": 1793,
      "హృ": 1794,
      "హరే": 1795,
      "ోజీ": 1796,
      "కుష్": 1797,
      "మామూ": 1798,
      "క్యా": 1799,
      "లోని": 1800,
      "చిరా": 1801,
      "చిత్ర": 1802,
      "సిరి": 1803,
      "సిందే": 1804,
      "చేస్తున్న": 1805,
      "కోండి": 1806,
      "కోట్లు": 1807,
      "మ్స్": 1808,
      "తిరిగి": 1809,
      "పోవాలి": 1810,
      "మింగ్": 1811,
      "మిగతా": 1812,
      "చూడు": 1813,
      "పెడ": 1814,
      "పెనీ": 1815,
      "డ్డా": 1816,
      "సంపాది": 1817,
      "ఒకటి": 1818,
      "య్యి": 1819,
      "శ్రీను": 1820,
      "శ్రీరామ్": 1821,
      "అందరు": 1822,
      "సీఎం": 1823,
      "అనుకో": 1824,
      "రోజుల": 1825,
      "పంచ్": 1826,
      "పరిస్థితి": 1827,
      "కంపెనీ": 1828,
      "ఎన్నికల": 1829,
      "వీడియోస్": 1830,
      "్రెస్": 1831,
      "ద్ధం": 1832,
      "ప్రభుత్వం": 1833,
      "కల్పి": 1834,
      "ఏంట్రా": 1835,
      "జరిగిన": 1836,
      "లక్ష్": 1837,
      "మార్చండి": 1838,
      "బాగుండేది": 1839,
      "లిరిక్స్": 1840,
      "ంధా": 1841,
      "అరు": 1842,
      "అతి": 1843,
      "అండి": 1844,
      "ఆప": 1845,
      "ఆశ": 1846,
      "ఇస్తే": 1847,
      "ఇచ్చే": 1848,
      "కట్టు": 1849,
      "జరి": 1850,
      "జనాలు": 1851,
      "జరగ": 1852,
      "డ్ర": 1853,
      "ద్యా": 1854,
      "ధర్": 1855,
      "నమో": 1856,
      "నమ్ము": 1857,
      "పరు": 1858,
      "పక్కా": 1859,
      "ఫె": 1860,
      "మగ": 1861,
      "రమే": 1862,
      "లగ్": 1863,
      "లైన": 1864,
      "ర్ని": 1865,
      "ర్టు": 1866,
      "నాయుడు": 1867,
      "రారు": 1868,
      "మాస్ట": 1869,
      "మాములు": 1870,
      "కిల్": 1871,
      "కింగ్": 1872,
      "డివి": 1873,
      "లేడి": 1874,
      "వివా": 1875,
      "దునియా": 1876,
      "డాన్": 1877,
      "సాహి": 1878,
      "నేర్": 1879,
      "సుకొ": 1880,
      "మిమ్మల్ని": 1881,
      "చూశా": 1882,
      "వేణు": 1883,
      "బుద్ధి": 1884,
      "తేడా": 1885,
      "సంఘ": 1886,
      "వెళ్": 1887,
      "రామోజీ": 1888,
      "స్ట్రీ": 1889,
      "టీఆర్": 1890,
      "జ్జి": 1891,
      "మంచిగా": 1892,
      "స్తాయి": 1893,
      "వైఎస్": 1894,
      "గ్రహ": 1895,
      "పూజ": 1896,
      "బ్రదర్": 1897,
      "మంత్రి": 1898,
      "మొదటి": 1899,
      "వందనాలు": 1900,
      "అధికారం": 1901,
      "పూర్వ": 1902,
      "దేశంలో": 1903,
      "రష్మి": 1904,
      "దరిద్రం": 1905,
      "బాలయ్య": 1906,
      "సంగీతం": 1907,
      "కుర్చీ": 1908,
      "మాస్టారు": 1909,
      "అమ": 1910,
      "అరె": 1911,
      "ఆధా": 1912,
      "ఆత్మ": 1913,
      "ఇబ్బ": 1914,
      "ఉండి": 1915,
      "ఏంది": 1916,
      "కౌ": 1917,
      "కమ్మ": 1918,
      "గలి": 1919,
      "గట్టి": 1920,
      "చట్ట": 1921,
      "డగు": 1922,
      "తృ": 1923,
      "నటి": 1924,
      "నవ్వ": 1925,
      "బడు": 1926,
      "బంధ": 1927,
      "యలు": 1928,
      "రవే": 1929,
      "వల్": 1930,
      "వంత": 1931,
      "హరి": 1932,
      "హ్యా": 1933,
      "ోల్": 1934,
      "ందరు": 1935,
      "నానా": 1936,
      "గాలు": 1937,
      "రాలేదు": 1938,
      "మాన్": 1939,
      "ంటీ": 1940,
      "క్కో": 1941,
      "క్టర్": 1942,
      "వాలు": 1943,
      "కిరణ్": 1944,
      "లాగ": 1945,
      "చిన": 1946,
      "లేడు": 1947,
      "చేత": 1948,
      "గురూ": 1949,
      "వినా": 1950,
      "వివే": 1951,
      "దులు": 1952,
      "పాలు": 1953,
      "పాత్ర": 1954,
      "పాడిన": 1955,
      "సాడు": 1956,
      "సామి": 1957,
      "ప్రచా": 1958,
      "ప్రవచ": 1959,
      "కోట్ల": 1960,
      "తుల": 1961,
      "పోరా": 1962,
      "యాల": 1963,
      "చూస్తున్నారు": 1964,
      "పెడు": 1965,
      "స్తులు": 1966,
      "ండే": 1967,
      "సంక": 1968,
      "సంస్": 1969,
      "ల్లీ": 1970,
      "క్షు": 1971,
      "ఎవరో": 1972,
      "ఎవరైనా": 1973,
      "అందంగా": 1974,
      "అందాల": 1975,
      "తెలుస్తుంది": 1976,
      "రూపం": 1977,
      "పంపి": 1978,
      "కొడుకులు": 1979,
      "సమాధా": 1980,
      "నాయకులు": 1981,
      "ణాలు": 1982,
      "పోయాడు": 1983,
      "కారణం": 1984,
      "జ్ఞాన": 1985,
      "పడుతుంది": 1986,
      "రాష్ట్రా": 1987,
      "జనసేన": 1988,
      "చెప్పాలి": 1989,
      "ఫోటో": 1990,
      "జాతకం": 1991,
      "అవినీతి": 1992,
      "బుల్లెట్టు": 1993,
      "పనికిమాలిన": 1994,
      "సందమామ": 1995,
      "ఉపయో": 1996,
      "ఏముంది": 1997,
      "మడత": 1998,
      "ంబర్": 1999,
      "ఇమ్ము": 2000,
      "ఇప్పుడే": 2001,
      "ఈరోజు": 2002,
      "ఉచి": 2003,
      "ఏమో": 2004,
      "ఐతే": 2005,
      "ఓకే": 2006,
      "కన్ను": 2007,
      "జూ": 2008,
      "జనం": 2009,
      "డ్రెస్": 2010,
      "ణీ": 2011,
      "తడు": 2012,
      "తనం": 2013,
      "తగ్గ": 2014,
      "థా": 2015,
      "దన": 2016,
      "ధై": 2017,
      "బండె": 2018,
      "భర్": 2019,
      "మన్": 2020,
      "మట్టి": 2021,
      "మణి": 2022,
      "మధు": 2023,
      "యన్": 2024,
      "యత్": 2025,
      "రస్": 2026,
      "రజా": 2027,
      "సృ": 2028,
      "్రం": 2029,
      "గారూ": 2030,
      "రాహు": 2031,
      "మాం": 2032,
      "కింద": 2033,
      "కావ": 2034,
      "నుల": 2035,
      "లారా": 2036,
      "ప్లా": 2037,
      "గుడు": 2038,
      "గుంటూ": 2039,
      "బాగ": 2040,
      "సాయి": 2041,
      "ప్రయత్": 2042,
      "కోవాలి": 2043,
      "తికి": 2044,
      "తిరుగు": 2045,
      "పోతారు": 2046,
      "పోతున్నారు": 2047,
      "కొంచ": 2048,
      "చూస్తున్న": 2049,
      "పెరిగి": 2050,
      "పెడితే": 2051,
      "పెళ్ళి": 2052,
      "త్వ": 2053,
      "పుట్ట": 2054,
      "సూర్య": 2055,
      "కూర్": 2056,
      "తోంది": 2057,
      "మేడం": 2058,
      "గిలి": 2059,
      "గితే": 2060,
      "వెరీ": 2061,
      "స్టై": 2062,
      "లీడర్": 2063,
      "మంచిది": 2064,
      "గ్రహా": 2065,
      "లెట్": 2066,
      "లెంట్": 2067,
      "సెక్": 2068,
      "ఏమిటి": 2069,
      "సమయం": 2070,
      "టైటిల్": 2071,
      "టైమింగ్": 2072,
      "ప్రేమి": 2073,
      "ఇవ్వడం": 2074,
      "ష్ణు": 2075,
      "తెలియని": 2076,
      "వాడికి": 2077,
      "రాంగోపాల్": 2078,
      "ప్రభుత్వ": 2079,
      "బ్యాక్": 2080,
      "బ్యాచ్": 2081,
      "చేస్తాడు": 2082,
      "పూర్ణ": 2083,
      "చేస్తున్నాడు": 2084,
      "రేష్మి": 2085,
      "జరిగింది": 2086,
      "ఛానల్": 2087,
      "సమాజం": 2088,
      "ఎప్పుడూ": 2089,
      "దండం": 2090,
      "ముస్లిం": 2091,
      "కడుపు": 2092,
      "విధంగా": 2093,
      "రౌడీ": 2094,
      "పాదాభి": 2095,
      "కోసమే": 2096,
      "విజయాన్ని": 2097,
      "అబ": 2098,
      "అస": 2099,
      "అప్": 2100,
      "అదుర్": 2101,
      "ఇస్": 2102,
      "ఇవి": 2103,
      "ఇన్ని": 2104,
      "ఇండ": 2105,
      "ఎక్స్": 2106,
      "ఎర్రి": 2107,
      "కడ": 2108,
      "గలు": 2109,
      "ఘన": 2110,
      "చచ్చి": 2111,
      "తట్టు": 2112,
      "దరా": 2113,
      "నడు": 2114,
      "పంది": 2115,
      "పవి": 2116,
      "పడ్డా": 2117,
      "భర": 2118,
      "మహి": 2119,
      "హర్": 2120,
      "ోడు": 2121,
      "నిమి": 2122,
      "ర్యం": 2123,
      "ందరూ": 2124,
      "మానే": 2125,
      "మాస్టర్": 2126,
      "వాస్త": 2127,
      "వాడే": 2128,
      "కాల్": 2129,
      "ల్సిన": 2130,
      "చిత్రం": 2131,
      "సింగ": 2132,
      "లేకుంటే": 2133,
      "గుల": 2134,
      "వుల": 2135,
      "డారు": 2136,
      "సారు": 2137,
      "కోర్టు": 2138,
      "ముందే": 2139,
      "మ్మే": 2140,
      "తినే": 2141,
      "కొట్టే": 2142,
      "దాం": 2143,
      "దారి": 2144,
      "పెరుగు": 2145,
      "పెళ్ళా": 2146,
      "తెచ్చు": 2147,
      "అన్నకి": 2148,
      "వీళ్ళు": 2149,
      "ంచడానికి": 2150,
      "రేపు": 2151,
      "వెంట": 2152,
      "వెయి": 2153,
      "వెయ్య": 2154,
      "తీరు": 2155,
      "చెప్పడం": 2156,
      "భాష": 2157,
      "త్తప్పా": 2158,
      "మూర్": 2159,
      "మోసం": 2160,
      "రూపి": 2161,
      "చేయలేదు": 2162,
      "చేయడానికి": 2163,
      "సీన్": 2164,
      "ంటాయి": 2165,
      "లంజ": 2166,
      "లంజా": 2167,
      "గొంతు": 2168,
      "బ్రతుకు": 2169,
      "పెట్టే": 2170,
      "య్యాలి": 2171,
      "యేల్": 2172,
      "అవసర": 2173,
      "సెట్": 2174,
      "కృత": 2175,
      "ప్రేక్ష": 2176,
      "పడితే": 2177,
      "రాజకీయాలు": 2178,
      "మైండ్": 2179,
      "అద్భుతంగా": 2180,
      "చిక్కుబు": 2181,
      "చంపే": 2182,
      "మర్చి": 2183,
      "పరమ": 2184,
      "హైపర్": 2185,
      "వదిలి": 2186,
      "సొల్లు": 2187,
      "హిందువులు": 2188,
      "ప్రోమో": 2189,
      "కాలంలో": 2190,
      "ఏమైనా": 2191,
      "స్థాయి": 2192,
      "పెట్టాలి": 2193,
      "చేశాడు": 2194,
      "ప్రశ్న": 2195,
      "జరుగుతుంది": 2196,
      "బలగం": 2197,
      "న్యాయం": 2198,
      "మనుషులు": 2199,
      "అవ్వాలని": 2200,
      "గౌర": 2201,
      "ముసలో": 2202,
      "అతని": 2203,
      "బ్రాహ్మణు": 2204,
      "తయారు": 2205,
      "స్క్రిప్ట్": 2206,
      "చైత": 2207,
      "నెలలు": 2208,
      "ఏదైనా": 2209,
      "ఇండియా": 2210,
      "దునియానే": 2211,
      "సమాధానం": 2212,
      "బండెక్కి": 2213,
      "రజాకార్": 2214,
      "అదుర్స్": 2215,
      "ఇండస్ట్రీ": 2216,
      "ఆయ": 2217,
      "ఆతడు": 2218,
      "ఇన్": 2219,
      "ఇస్తా": 2220,
      "ఈసారి": 2221,
      "ఉఊ": 2222,
      "ఉత్త": 2223,
      "ఎమ్": 2224,
      "కనీ": 2225,
      "కరించి": 2226,
      "గతం": 2227,
      "డౌ": 2228,
      "ధ్యా": 2229,
      "పడాలి": 2230,
      "బడి": 2231,
      "బలి": 2232,
      "బట్ట": 2233,
      "భం": 2234,
      "భ్య": 2235,
      "భవిష": 2236,
      "షు": 2237,
      "ొక": 2238,
      "స్టి": 2239,
      "కుట్ర": 2240,
      "కుంటారు": 2241,
      "నాకి": 2242,
      "నాకే": 2243,
      "రాశ": 2244,
      "మాత": 2245,
      "వార": 2246,
      "వాటి": 2247,
      "కాన్": 2248,
      "కామి": 2249,
      "డియో": 2250,
      "చిల్ల": 2251,
      "ప్తి": 2252,
      "వింటే": 2253,
      "విమర్": 2254,
      "విష్ణు": 2255,
      "వున్నారు": 2256,
      "బాగో": 2257,
      "పాప": 2258,
      "సాం": 2259,
      "చానల్": 2260,
      "ప్రదా": 2261,
      "ప్రజా": 2262,
      "నీకే": 2263,
      "చెపు": 2264,
      "తిరే": 2265,
      "కొర": 2266,
      "దాకా": 2267,
      "పిస్తుంది": 2268,
      "పురుగు": 2269,
      "తాత": 2270,
      "తాను": 2271,
      "తాగు": 2272,
      "తెలీ": 2273,
      "గిరి": 2274,
      "ఒకసారి": 2275,
      "వైపు": 2276,
      "గొడవ": 2277,
      "జీవితా": 2278,
      "ఉండేది": 2279,
      "లైట్": 2280,
      "రాజ్యా": 2281,
      "దొరికి": 2282,
      "పెట్టుకొని": 2283,
      "సమాజా": 2284,
      "మధ్యలో": 2285,
      "ట్టాలి": 2286,
      "సైకిల్": 2287,
      "తెలియజే": 2288,
      "వాడిని": 2289,
      "కార్తీ": 2290,
      "ప్రపంచంలో": 2291,
      "కొత్తగా": 2292,
      "ఉంటాయి": 2293,
      "ఫీల్": 2294,
      "మనస్పూర్తిగా": 2295,
      "ఆలోచించండి": 2296,
      "విధానం": 2297,
      "గ్రేట్": 2298,
      "జ్యోతిష్య": 2299,
      "కుటుంబం": 2300,
      "పల్లెటూ": 2301,
      "వెంకీ": 2302,
      "బైబిల్": 2303,
      "ఎన్టీఆర్": 2304,
      "వింటుంటే": 2305,
      "హ్యాపీ": 2306,
      "పవిత్ర": 2307,
      "సింగర్": 2308,
      "మూర్ఖ": 2309,
      "భవిష్య": 2310,
      "చిల్లర": 2311,
      "ంధి": 2312,
      "అక్ష": 2313,
      "అమాయ": 2314,
      "అవార్": 2315,
      "అదృ": 2316,
      "ఇవ": 2317,
      "ఇటువంటి": 2318,
      "ఉంటది": 2319,
      "ఎద": 2320,
      "ఎర్ర": 2321,
      "కట్ట": 2322,
      "కటి": 2323,
      "కపోతే": 2324,
      "కంటె": 2325,
      "గడ": 2326,
      "గ్యా": 2327,
      "గంలో": 2328,
      "గజ్జి": 2329,
      "జర": 2330,
      "జల": 2331,
      "జంతు": 2332,
      "నక్ష": 2333,
      "నటన": 2334,
      "పబ్": 2335,
      "పరువు": 2336,
      "పనులు": 2337,
      "బృ": 2338,
      "బతు": 2339,
      "భలే": 2340,
      "భవి": 2341,
      "మందు": 2342,
      "వూ": 2343,
      "వలా": 2344,
      "వస్త": 2345,
      "వంతు": 2346,
      "షంగా": 2347,
      "హరాయి": 2348,
      "నింగ్": 2349,
      "కుండ": 2350,
      "కున్నారు": 2351,
      "నాగ": 2352,
      "గార్": 2353,
      "మాని": 2354,
      "మాది": 2355,
      "క్ట్": 2356,
      "డులు": 2357,
      "కాదే": 2358,
      "లేద": 2359,
      "గుక్క": 2360,
      "గురవే": 2361,
      "పాడి": 2362,
      "సాధ్య": 2363,
      "ప్రస్తు": 2364,
      "ప్రభాస్": 2365,
      "సుమ": 2366,
      "తిరగ": 2367,
      "కొండ": 2368,
      "మించి": 2369,
      "పిన": 2370,
      "చూస్తూ": 2371,
      "చూస్తుంటే": 2372,
      "టివ్": 2373,
      "డ్లు": 2374,
      "తాగి": 2375,
      "జాన": 2376,
      "జారి": 2377,
      "భాగ": 2378,
      "భావి": 2379,
      "ఎవరికి": 2380,
      "మోస": 2381,
      "అందం": 2382,
      "జివి": 2383,
      "కోరుకుంటూ": 2384,
      "అనుకున్న": 2385,
      "అనుకుంటున్నా": 2386,
      "లెక్క": 2387,
      "లెవెల్": 2388,
      "లెహరాయి": 2389,
      "అర్జు": 2390,
      "తెలిసిన": 2391,
      "వ్యక్": 2392,
      "వ్యతిరే": 2393,
      "లైఫ్": 2394,
      "రాజశేఖర్": 2395,
      "సెల": 2396,
      "బోకు": 2397,
      "ఆర్జీవి": 2398,
      "దొర": 2399,
      "అవును": 2400,
      "చూపిస్తా": 2401,
      "బొమ్మ": 2402,
      "ఇవ్వండి": 2403,
      "కోరుకుంటున్నాం": 2404,
      "కోరుకుంటున్నాము": 2405,
      "చూసినా": 2406,
      "సాధించాలి": 2407,
      "క్రమ": 2408,
      "దూరం": 2409,
      "గుర్తుకు": 2410,
      "కొడక": 2411,
      "హైలెట్": 2412,
      "పదం": 2413,
      "ఆలోచ": 2414,
      "కుటుం": 2415,
      "కనపడ": 2416,
      "బూతు": 2417,
      "అబ్బాయి": 2418,
      "ప్యాకే": 2419,
      "పోలీస్": 2420,
      "చంద్రు": 2421,
      "మల్లెమాల": 2422,
      "సంవత్సరాల": 2423,
      "ఎక్స": 2424,
      "కన్నీళ్లు": 2425,
      "చిరాకు": 2426,
      "లగ్నం": 2427,
      "మాములుగా": 2428,
      "సాహిత్యం": 2429,
      "ఇబ్బంది": 2430,
      "గురూజీ": 2431,
      "స్టైల్": 2432,
      "కనీసం": 2433,
      "అయన": 2434,
      "అప్పటి": 2435,
      "ఆట": 2436,
      "ఆడు": 2437,
      "ఆపే": 2438,
      "ఎక్కు": 2439,
      "కచ్చితంగా": 2440,
      "గ్రీ": 2441,
      "డలు": 2442,
      "డ్యా": 2443,
      "ణంలో": 2444,
      "తరగ": 2445,
      "దర": 2446,
      "దై": 2447,
      "దములు": 2448,
      "నమ్మి": 2449,
      "పల": 2450,
      "పరీ": 2451,
      "భజన": 2452,
      "మసా": 2453,
      "మల్లి": 2454,
      "ళా": 2455,
      "వొ": 2456,
      "వరా": 2457,
      "వరం": 2458,
      "వహి": 2459,
      "షన్స్": 2460,
      "సన్": 2461,
      "హర": 2462,
      "నిల": 2463,
      "నిమ్మ": 2464,
      "స్సు": 2465,
      "రుడు": 2466,
      "ందరి": 2467,
      "కులకు": 2468,
      "నారు": 2469,
      "నాగి": 2470,
      "రాని": 2471,
      "రాడు": 2472,
      "రాసి": 2473,
      "రామాయ": 2474,
      "మానం": 2475,
      "వాన్ని": 2476,
      "కాస్త": 2477,
      "కాలేదు": 2478,
      "ప్న": 2479,
      "లేన": 2480,
      "చేసుకొని": 2481,
      "విశ్": 2482,
      "వుంటే": 2483,
      "మీలో": 2484,
      "పాడు": 2485,
      "పావలా": 2486,
      "సాక్షి": 2487,
      "ప్రత్య": 2488,
      "కోడి": 2489,
      "కోడం": 2490,
      "కోవడం": 2491,
      "ముగా": 2492,
      "ములో": 2493,
      "చ్ఛ": 2494,
      "పోవ": 2495,
      "పోతు": 2496,
      "పోటీ": 2497,
      "మిగి": 2498,
      "పెన్": 2499,
      "త్తా": 2500,
      "పుట్టి": 2501,
      "పుడే": 2502,
      "ంటున్న": 2503,
      "వెన": 2504,
      "పాటకి": 2505,
      "తీర్": 2506,
      "తీసుకో": 2507,
      "బ్బి": 2508,
      "బాగుండు": 2509,
      "వర్గం": 2510,
      "భావ": 2511,
      "ండాలి": 2512,
      "శాడు": 2513,
      "శాశ్వ": 2514,
      "రూప": 2515,
      "మొహం": 2516,
      "బాగానే": 2517,
      "జగనన్న": 2518,
      "నమస్తే": 2519,
      "లేకపోయినా": 2520,
      "పెట్టడం": 2521,
      "ప్రజలను": 2522,
      "ఎలాంటి": 2523,
      "తెలుగులో": 2524,
      "ఏమిటో": 2525,
      "తున్నాడు": 2526,
      "తున్నాయి": 2527,
      "బెటర్": 2528,
      "వాళ్లకి": 2529,
      "అభిప్రా": 2530,
      "అభినంద": 2531,
      "అభివృ": 2532,
      "స్వామీ": 2533,
      "ంధం": 2534,
      "పిల్లల": 2535,
      "నోటి": 2536,
      "పేరుతో": 2537,
      "కలిగి": 2538,
      "అభిమానుల": 2539,
      "శుభ": 2540,
      "కృష్ణభగవాన్": 2541,
      "అనిపించింది": 2542,
      "మంతా": 2543,
      "సరైన": 2544,
      "పదవి": 2545,
      "గాడిని": 2546,
      "చేసాడు": 2547,
      "ఏడుపు": 2548,
      "కరణ": 2549,
      "దుర్గా": 2550,
      "స్వప్న": 2551,
      "గెలిపి": 2552,
      "ఏంటో": 2553,
      "డైలాగ్స్": 2554,
      "నిజాలు": 2555,
      "ప్రశ్ని": 2556,
      "దేశానికి": 2557,
      "పోలీసు": 2558,
      "జీవితంలో": 2559,
      "హిందువుల": 2560,
      "ఇచ్చారు": 2561,
      "సంతోషంగా": 2562,
      "గ్రేస్": 2563,
      "లక్షల": 2564,
      "రూపాయలు": 2565,
      "చేతిలో": 2566,
      "అయ్యింది": 2567,
      "బాబాయ్": 2568,
      "వెన్నెల": 2569,
      "ఇవ్వాలి": 2570,
      "త్వరగా": 2571,
      "ప్రచారం": 2572,
      "గౌరవం": 2573,
      "పబ్లి": 2574,
      "అర్జున్": 2575,
      "ంప": 2576,
      "ంకా": 2577,
      "అచ్చ": 2578,
      "ఆశి": 2579,
      "ఇత": 2580,
      "ఊహ": 2581,
      "ఎటువంటి": 2582,
      "ఏడ్": 2583,
      "ఓడి": 2584,
      "కను": 2585,
      "కండ": 2586,
      "కట్టి": 2587,
      "గత": 2588,
      "గంట": 2589,
      "చల": 2590,
      "జం": 2591,
      "టమే": 2592,
      "దల": 2593,
      "దయం": 2594,
      "ధ్": 2595,
      "నర": 2596,
      "నర్": 2597,
      "నయం": 2598,
      "పథ": 2599,
      "పలి": 2600,
      "పద్ధ": 2601,
      "ఫ్ర": 2602,
      "ఫార్": 2603,
      "బడ": 2604,
      "మద్య": 2605,
      "ళం": 2606,
      "వని": 2607,
      "వనం": 2608,
      "వయ్యా": 2609,
      "శ్ర": 2610,
      "హక్కు": 2611,
      "ుడు": 2612,
      "ర్స్": 2613,
      "ర్యు": 2614,
      "రుకు": 2615,
      "రుపు": 2616,
      "నాన": 2617,
      "నాటి": 2618,
      "నావల్ల": 2619,
      "రాశి": 2620,
      "రాత్రి": 2621,
      "మావా": 2622,
      "క్లా": 2623,
      "రియా": 2624,
      "రికార్": 2625,
      "కాలా": 2626,
      "కాదా": 2627,
      "డిగా": 2628,
      "డిబే": 2629,
      "లోన": 2630,
      "లోకేష్": 2631,
      "లాస్ట్": 2632,
      "విద్యా": 2633,
      "వుడ్": 2634,
      "దిగ": 2635,
      "బాలు": 2636,
      "బాలి": 2637,
      "బాద్": 2638,
      "బాలేదు": 2639,
      "సామా": 2640,
      "చావు": 2641,
      "ప్రె": 2642,
      "ప్రమా": 2643,
      "తుజ్": 2644,
      "నేని": 2645,
      "నేనే": 2646,
      "సుడి": 2647,
      "సుధా": 2648,
      "తిని": 2649,
      "కొరి": 2650,
      "కొడితే": 2651,
      "దాస్": 2652,
      "దాడి": 2653,
      "పించే": 2654,
      "పెర్": 2655,
      "అన్నం": 2656,
      "బుద్ది": 2657,
      "కూర్చు": 2658,
      "మెన్స్": 2659,
      "మేక": 2660,
      "మేధా": 2661,
      "మనల్ని": 2662,
      "వెళ్ళ": 2663,
      "వెస్ట్": 2664,
      "వెదవ": 2665,
      "వెనుక": 2666,
      "పాటలో": 2667,
      "ఒకప్పుడు": 2668,
      "ట్టుంది": 2669,
      "స్టా": 2670,
      "జీవ": 2671,
      "శాంత": 2672,
      "ఎవడ్రా": 2673,
      "మూడు": 2674,
      "తెలుసే": 2675,
      "మొగుడు": 2676,
      "జిల్": 2677,
      "బాగాలేదు": 2678,
      "ల్లోకి": 2679,
      "చూడడం": 2680,
      "స్తున్నాయి": 2681,
      "మూవీస్": 2682,
      "నెంబర్": 2683,
      "ఆర్జివి": 2684,
      "వీడికి": 2685,
      "అలాంటి": 2686,
      "అవుతారు": 2687,
      "గెలు": 2688,
      "తప్పి": 2689,
      "ట్రోల్": 2690,
      "టైమ్": 2691,
      "చెయ్యడం": 2692,
      "పెట్టుకుని": 2693,
      "వీడియోలు": 2694,
      "నాయకు": 2695,
      "అన్నాడు": 2696,
      "తొక్క": 2697,
      "హింద్": 2698,
      "వందనం": 2699,
      "అయ్యే": 2700,
      "వచ్చాయి": 2701,
      "చెబుతారు": 2702,
      "చెబుతున్న": 2703,
      "ఛాన్స్": 2704,
      "ంగిడి": 2705,
      "రాముడు": 2706,
      "దృష్టి": 2707,
      "ప్యార్": 2708,
      "అవ్వాలి": 2709,
      "చోట": 2710,
      "గౌరవి": 2711,
      "ముసలి": 2712,
      "దేవత": 2713,
      "నమస్కార": 2714,
      "నవ్వి": 2715,
      "పుట్టాడు": 2716,
      "కార్యకర్": 2717,
      "పరిష్కారం": 2718,
      "ప్రియత": 2719,
      "ఇమ్మాని": 2720,
      "థాం": 2721,
      "సృష్టి": 2722,
      "కొంచం": 2723,
      "వెంటనే": 2724,
      "వెయిటింగ్": 2725,
      "అవసరమా": 2726,
      "బట్టలు": 2727,
      "సమాజానికి": 2728,
      "గుక్కపట్టి": 2729,
      "సాధ్యం": 2730,
      "వయ్యారి": 2731,
      "ప్రియతమా": 2732,
      "ంఛ": 2733,
      "అరా": 2734,
      "అప్ప": 2735,
      "అమృ": 2736,
      "అశో": 2737,
      "ఆల": 2738,
      "ఆస్": 2739,
      "ఆహా": 2740,
      "ఆస్తి": 2741,
      "ఉంట": 2742,
      "ఉద్": 2743,
      "ఊరి": 2744,
      "ఎవర్": 2745,
      "ఏర్": 2746,
      "కై": 2747,
      "కమ్": 2748,
      "కత్తి": 2749,
      "ఖం": 2750,
      "గన్న": 2751,
      "గమని": 2752,
      "డొ": 2753,
      "తక": 2754,
      "తరి": 2755,
      "నష్ట": 2756,
      "నమ్మా": 2757,
      "నన్నే": 2758,
      "పదే": 2759,
      "పత్రి": 2760,
      "బౌ": 2761,
      "భీ": 2762,
      "భయం": 2763,
      "భ్యం": 2764,
      "మల్లే": 2765,
      "రచ": 2766,
      "రండి": 2767,
      "లన్నీ": 2768,
      "వ్ర": 2769,
      "వ్రా": 2770,
      "వడానికి": 2771,
      "శర్మ": 2772,
      "సన": 2773,
      "సందే": 2774,
      "హన": 2775,
      "హె": 2776,
      "ానికి": 2777,
      "ేక": 2778,
      "నిరూపి": 2779,
      "స్క్రీ": 2780,
      "ర్రు": 2781,
      "ందం": 2782,
      "నాల": 2783,
      "నాన్ని": 2784,
      "నానికి": 2785,
      "రావే": 2786,
      "రాక్ష": 2787,
      "మారా": 2788,
      "మాకే": 2789,
      "క్లి": 2790,
      "వాడ": 2791,
      "వానికి": 2792,
      "వాటికి": 2793,
      "కాయ": 2794,
      "కాలే": 2795,
      "కావాల": 2796,
      "డిస్": 2797,
      "డిగ్రీ": 2798,
      "లోక": 2799,
      "ందిన": 2800,
      "లిచారు": 2801,
      "వుంటుంది": 2802,
      "బాని": 2803,
      "మీది": 2804,
      "డాక్టర్": 2805,
      "పాడ": 2806,
      "పాలి": 2807,
      "పాడారు": 2808,
      "సాయం": 2809,
      "ళ్లకు": 2810,
      "ప్రదే": 2811,
      "నీరు": 2812,
      "యితీ": 2813,
      "తులకు": 2814,
      "తుందో": 2815,
      "ముక్క": 2816,
      "ముద్దు": 2817,
      "చెల్లి": 2818,
      "చ్చె": 2819,
      "పోమాకే": 2820,
      "కొన": 2821,
      "కొందరు": 2822,
      "మిల": 2823,
      "పిచ్చ": 2824,
      "చూస్తారు": 2825,
      "చూస్తాను": 2826,
      "పెండ్": 2827,
      "వేసే": 2828,
      "వేసుకో": 2829,
      "వేస్తారు": 2830,
      "దేవాల": 2831,
      "సినిమాకి": 2832,
      "తెర": 2833,
      "కేతు": 2834,
      "సంగ": 2835,
      "రేజ్": 2836,
      "మేడ": 2837,
      "వెర్రి": 2838,
      "తీశారు": 2839,
      "చ్చింది": 2840,
      "స్టు": 2841,
      "టీన్": 2842,
      "హిం": 2843,
      "సేజ్": 2844,
      "వర్తి": 2845,
      "జ్జా": 2846,
      "వాళ్ళను": 2847,
      "క్షణ": 2848,
      "శ్రీరామ": 2849,
      "లీవుడ్": 2850,
      "్రాలు": 2851,
      "శాఖ": 2852,
      "అంటేనే": 2853,
      "ఇలానే": 2854,
      "ఎందుకో": 2855,
      "ఒక్కటి": 2856,
      "ఒక్కసారి": 2857,
      "గ్రం": 2858,
      "గ్రహం": 2859,
      "దీన్ని": 2860,
      "దీనికి": 2861,
      "దీపం": 2862,
      "సుకుని": 2863,
      "అవగా": 2864,
      "ఉన్నాడు": 2865,
      "ఉన్నాను": 2866,
      "స్టార్ట్": 2867,
      "ఎన్నిక": 2868,
      "చూపించ": 2869,
      "చూపించారు": 2870,
      "దేవుని": 2871,
      "చెయ్యి": 2872,
      "నాయకుడు": 2873,
      "దెంగు": 2874,
      "రాజకీయం": 2875,
      "క్రై": 2876,
      "మనసును": 2877,
      "సరిగా": 2878,
      "మహాను": 2879,
      "అధికా": 2880,
      "నిర్ణ": 2881,
      "కథలు": 2882,
      "ఇప్పటికీ": 2883,
      "ఏమన్నా": 2884,
      "ధన్యవాదములు": 2885,
      "తీసేయండి": 2886,
      "డెంట్": 2887,
      "మాట్లాడుతున్నారు": 2888,
      "అడగ": 2889,
      "బ్రాహ్మణ": 2890,
      "తరపున": 2891,
      "ఫేస్": 2892,
      "చేయాలని": 2893,
      "వెంక": 2894,
      "సింహ": 2895,
      "తంత్ర": 2896,
      "వ్యాపా": 2897,
      "ఎంట్రీ": 2898,
      "గరికపాటి": 2899,
      "పంచులు": 2900,
      "అదిరింది": 2901,
      "రక్త": 2902,
      "స్టెప్": 2903,
      "క్యారెక్టర్": 2904,
      "రమేష్": 2905,
      "అమలు": 2906,
      "వినాలని": 2907,
      "ఉచిత": 2908,
      "ఆయనే": 2909,
      "డౌట్": 2910,
      "కామిడీ": 2911,
      "తెలీదు": 2912,
      "కార్తీక్": 2913,
      "మసాలా": 2914,
      "అభినందనలు": 2915,
      "అభివృద్ధి": 2916,
      "నమస్కారములు": 2917,
      "ఇమ్మానియేల్": 2918,
      "అరాచ": 2919,
      "ప్రదేశ్": 2920,
      "ంకు": 2921,
      "అడు": 2922,
      "అల్లో": 2923,
      "అమ్ము": 2924,
      "అంటూ": 2925,
      "అబ్బ": 2926,
      "అంటున్నా": 2927,
      "అడ్డు": 2928,
      "ఆఖ": 2929,
      "ఆటో": 2930,
      "ఆంటీ": 2931,
      "ఇపుడు": 2932,
      "ఇతర": 2933,
      "ఈనాడు": 2934,
      "ఉదా": 2935,
      "ఉంచి": 2936,
      "ఉచ్చ": 2937,
      "ఎల": 2938,
      "ఎన్నా": 2939,
      "ఎమో": 2940,
      "ఎదో": 2941,
      "ఏదే": 2942,
      "ఏపీ": 2943,
      "ఐదు": 2944,
      "కంట": 2945,
      "కరం": 2946,
      "కట్టిన": 2947,
      "ఖి": 2948,
      "ఖర్చు": 2949,
      "గవర్": 2950,
      "గడ్డి": 2951,
      "చర": 2952,
      "చంటి": 2953,
      "చర్య": 2954,
      "డైనా": 2955,
      "తకు": 2956,
      "థ్": 2957,
      "ధన": 2958,
      "ధను": 2959,
      "నొ": 2960,
      "నడి": 2961,
      "నంది": 2962,
      "పద్": 2963,
      "పటి": 2964,
      "పతీ": 2965,
      "బతి": 2966,
      "భక్తి": 2967,
      "మంటే": 2968,
      "యని": 2969,
      "యస్": 2970,
      "యంగా": 2971,
      "రమ": 2972,
      "లకే": 2973,
      "వల్లే": 2974,
      "శ్రా": 2975,
      "శక్తి": 2976,
      "షల్": 2977,
      "సలా": 2978,
      "సబ్": 2979,
      "న్మా": 2980,
      "నిండి": 2981,
      "నిన్నే": 2982,
      "ర్ల": 2983,
      "రుల": 2984,
      "ందర": 2985,
      "నాని": 2986,
      "నాది": 2987,
      "రాన్ని": 2988,
      "రానికి": 2989,
      "రాజా": 2990,
      "రాధా": 2991,
      "రాకెట్": 2992,
      "మాలు": 2993,
      "మాన్ని": 2994,
      "వామ్మ": 2995,
      "కిక్": 2996,
      "కిక్కు": 2997,
      "కాలి": 2998,
      "కావు": 2999,
      "నువ్వ": 3000,
      "లోడు": 3001,
      "సిపి": 3002,
      "లేము": 3003,
      "లేదే": 3004,
      "లేదో": 3005,
      "లేదని": 3006,
      "గుడి": 3007,
      "వుతుంది": 3008,
      "దిన": 3009,
      "బాబో": 3010,
      "మీనింగ్": 3011,
      "సాటి": 3012,
      "నీతో": 3013,
      "యినా": 3014,
      "నేమో": 3015,
      "ముడు": 3016,
      "చెడు": 3017,
      "సుల": 3018,
      "తిరు": 3019,
      "పోటు": 3020,
      "పోతున్న": 3021,
      "పోద్ది": 3022,
      "ద్వే": 3023,
      "కొట్టిన": 3024,
      "కొజ్జా": 3025,
      "యాలను": 3026,
      "పించింది": 3027,
      "త్స": 3028,
      "టికెట్": 3029,
      "పురు": 3030,
      "పుస్త": 3031,
      "పులి": 3032,
      "పురం": 3033,
      "వేలు": 3034,
      "వేస్తే": 3035,
      "తాం": 3036,
      "తావు": 3037,
      "వీర": 3038,
      "రోగ": 3039,
      "రోడ్డు": 3040,
      "కేంద్ర": 3041,
      "రేషన్": 3042,
      "రెండ": 3043,
      "రెడీ": 3044,
      "తీసు": 3045,
      "జాతి": 3046,
      "ఒకటే": 3047,
      "ట్టుగా": 3048,
      "బాగుంటాయి": 3049,
      "సేపు": 3050,
      "వర్త": 3051,
      "వాళ్ళే": 3052,
      "క్షే": 3053,
      "శ్రీకా": 3054,
      "మూరి": 3055,
      "అందమైన": 3056,
      "తెలుసా": 3057,
      "గారితో": 3058,
      "యుద్ధం": 3059,
      "పేర్లు": 3060,
      "మొన్న": 3061,
      "సీమ": 3062,
      "కుంటున్న": 3063,
      "కాదురా": 3064,
      "వారికీ": 3065,
      "ణ్ణి": 3066,
      "అనుకున్నా": 3067,
      "అనుభవి": 3068,
      "బ్రి": 3069,
      "బ్రహ్": 3070,
      "అర్దం": 3071,
      "తెలివి": 3072,
      "ంచుకున్న": 3073,
      "గోడ": 3074,
      "సుకుంటే": 3075,
      "తెలుగుదేశం": 3076,
      "తున్నాను": 3077,
      "కృషి": 3078,
      "సమంత": 3079,
      "తప్పా": 3080,
      "సోది": 3081,
      "ట్రె": 3082,
      "మాట్లాడే": 3083,
      "విషయాలు": 3084,
      "టాలెంట్": 3085,
      "నాలుగు": 3086,
      "నోరు": 3087,
      "ఎక్కడో": 3088,
      "కలిపి": 3089,
      "్రెస్ట్": 3090,
      "అందుకు": 3091,
      "నందమూరి": 3092,
      "ఫీలింగ్": 3093,
      "ఇంట్రెస్ట్": 3094,
      "వాలంట": 3095,
      "చెప్తారు": 3096,
      "అనవ": 3097,
      "అనసూ": 3098,
      "ఆడపిల్ల": 3099,
      "జడ్జ్": 3100,
      "హైదరా": 3101,
      "జోడి": 3102,
      "ఫిల్": 3103,
      "గాడిద": 3104,
      "వచ్చాడు": 3105,
      "ఇద్దరి": 3106,
      "చెబుతున్నా": 3107,
      "షాలు": 3108,
      "దుర్మార్": 3109,
      "వ్యూహం": 3110,
      "గెలిచారు": 3111,
      "నచ్చిన": 3112,
      "స్థానం": 3113,
      "రాష్ట్రంలో": 3114,
      "నిజాయితీ": 3115,
      "ప్రశ్నలు": 3116,
      "సంవత్సరం": 3117,
      "సమస్యలకు": 3118,
      "తీసుకుని": 3119,
      "మోహన": 3120,
      "సమాజంలో": 3121,
      "రొటీన్": 3122,
      "ఆంధ్రప్రదేశ్": 3123,
      "సంబంధం": 3124,
      "జడ్జిమెంట్": 3125,
      "సంతోషం": 3126,
      "ఎవ్వరు": 3127,
      "ఆనందం": 3128,
      "ముఖ్యమంత్రి": 3129,
      "ప్రోగ్రాం": 3130,
      "కొంతమంది": 3131,
      "ఇంకొక": 3132,
      "హృదయ": 3133,
      "జరిగే": 3134,
      "వివేకా": 3135,
      "ఉపయోగ": 3136,
      "సమయంలో": 3137,
      "పెళ్ళాం": 3138,
      "కృతజ్ఞ": 3139,
      "భవిష్యత్తు": 3140,
      "అదృష్టం": 3141,
      "కంటెంట్": 3142,
      "లేదంటే": 3143,
      "కొడకల్లారా": 3144,
      "డ్యాన్స్": 3145,
      "మిగిలిన": 3146,
      "దుర్గారావు": 3147,
      "డిబేట్": 3148,
      "కొరియో": 3149,
      "అవగాహన": 3150,
      "అల్లోపతీ": 3151,
      "వామ్మో": 3152,
      "ంక": 3153,
      "ంజ": 3154,
      "ంజ్": 3155,
      "అనీ": 3156,
      "అరే": 3157,
      "అప్పుడే": 3158,
      "ఆగ": 3159,
      "ఆవి": 3160,
      "ఆఫీ": 3161,
      "ఇట్లు": 3162,
      "ఇల్లు": 3163,
      "ఇతను": 3164,
      "ఈడు": 3165,
      "ఉంద": 3166,
      "ఊపు": 3167,
      "ఊహి": 3168,
      "ఎంటి": 3169,
      "ఐనా": 3170,
      "ఒడి": 3171,
      "ఒప్పు": 3172,
      "ఒక్కో": 3173,
      "ఓవరా": 3174,
      "కమె": 3175,
      "కష్టం": 3176,
      "ఖర్మ": 3177,
      "ఘో": 3178,
      "జంగా": 3179,
      "టమి": 3180,
      "ణ్య": 3181,
      "తప్పుడు": 3182,
      "దద్ద": 3183,
      "పట్ట": 3184,
      "పదా": 3185,
      "పక్ష": 3186,
      "పంచా": 3187,
      "పల్లి": 3188,
      "బద్ద": 3189,
      "బట్టే": 3190,
      "బద్ధ": 3191,
      "బహు": 3192,
      "మలి": 3193,
      "మరె": 3194,
      "యల్": 3195,
      "రత్": 3196,
      "ల్య": 3197,
      "లగి": 3198,
      "లపై": 3199,
      "శని": 3200,
      "షూ": 3201,
      "షర్": 3202,
      "సము": 3203,
      "సహా": 3204,
      "సత్యం": 3205,
      "ొద్దు": 3206,
      "ౌర్": 3207,
      "న్యం": 3208,
      "నిరు": 3209,
      "నిన్న": 3210,
      "నిలిచారు": 3211,
      "రుగ": 3212,
      "రుగా": 3213,
      "కుందా": 3214,
      "కుళం": 3215,
      "నాం": 3216,
      "నారాయ": 3217,
      "గార": 3218,
      "గానికి": 3219,
      "మాధ": 3220,
      "ంటల్": 3221,
      "క్టు": 3222,
      "రింగ్": 3223,
      "వాగు": 3224,
      "డుగ్": 3225,
      "కాన్ని": 3226,
      "కార్తి": 3227,
      "లాలు": 3228,
      "చివరి": 3229,
      "సింగ్": 3230,
      "సిటీ": 3231,
      "సిఆర్": 3232,
      "లేను": 3233,
      "లేదూ": 3234,
      "చేసు": 3235,
      "చేతులు": 3236,
      "గురి": 3237,
      "వివర": 3238,
      "వినాలి": 3239,
      "విపరీ": 3240,
      "బాటు": 3241,
      "మీర": 3242,
      "డాని": 3243,
      "పాఠ": 3244,
      "పాము": 3245,
      "పాజి": 3246,
      "సార": 3247,
      "సాని": 3248,
      "సాగి": 3249,
      "చార్య": 3250,
      "ప్రతీ": 3251,
      "ప్రయో": 3252,
      "నీడ": 3253,
      "కోపం": 3254,
      "కోవాలని": 3255,
      "తుడు": 3256,
      "ముగ్": 3257,
      "ముండా": 3258,
      "చెడ": 3259,
      "సుర్రు": 3260,
      "తిన": 3261,
      "యాస": 3262,
      "యాత్ర": 3263,
      "డ్ల": 3264,
      "డ్స్": 3265,
      "స్తుభ్యం": 3266,
      "పుష్": 3267,
      "వేసిన": 3268,
      "వేయండి": 3269,
      "అన్నది": 3270,
      "వీని": 3271,
      "వీటి": 3272,
      "ందులు": 3273,
      "మెన్": 3274,
      "మెంటల్": 3275,
      "ండ్రా": 3276,
      "చాలామంది": 3277,
      "కేసు": 3278,
      "కేసులు": 3279,
      "రేప్": 3280,
      "రేటింగ్": 3281,
      "మనకి": 3282,
      "వెలు": 3283,
      "తీసుకొ": 3284,
      "ఒకరు": 3285,
      "ఒకరి": 3286,
      "చెప్పలేక": 3287,
      "య్యం": 3288,
      "య్యే": 3289,
      "య్యండి": 3290,
      "జున": 3291,
      "జీవీ": 3292,
      "ండాలు": 3293,
      "శాలు": 3294,
      "ఎవడి": 3295,
      "చుట్టు": 3296,
      "టుగా": 3297,
      "ఇంకె": 3298,
      "చేయటం": 3299,
      "చేయలేరు": 3300,
      "చేయకండి": 3301,
      "హాస్": 3302,
      "హాలు": 3303,
      "హాయ్": 3304,
      "వైరస్": 3305,
      "ఒక్కటే": 3306,
      "అనుకుంటే": 3307,
      "అనుకుంటున్నారు": 3308,
      "నమస్తుభ్యం": 3309,
      "రోజుల్లో": 3310,
      "జబర్థ": 3311,
      "తెలిసే": 3312,
      "ఉండండి": 3313,
      "చూడడానికి": 3314,
      "బిర్యా": 3315,
      "స్తున్నాం": 3316,
      "గోల": 3317,
      "గోవి": 3318,
      "శ్వర్": 3319,
      "శ్వర": 3320,
      "మైనది": 3321,
      "మార్చి": 3322,
      "కెసిఆర్": 3323,
      "సెస్": 3324,
      "పొద్దు": 3325,
      "పరిశ్ర": 3326,
      "డైతే": 3327,
      "దొక": 3328,
      "ఎన్నిసార్లు": 3329,
      "సమర్": 3330,
      "మాట్లాడి": 3331,
      "దేవుళ్ళు": 3332,
      "ప్రాణ": 3333,
      "కలగన్న": 3334,
      "అర్థమ": 3335,
      "మనువు": 3336,
      "బీట్": 3337,
      "తొలగి": 3338,
      "తరుపున": 3339,
      "మైంది": 3340,
      "పట్టించుకో": 3341,
      "దర్శి": 3342,
      "సరిపో": 3343,
      "పడుతున్నా": 3344,
      "చెప్పాలంటే": 3345,
      "ఇదేనా": 3346,
      "హైలైట్": 3347,
      "జోక్స్": 3348,
      "భారత్": 3349,
      "వచ్చారు": 3350,
      "మరొక": 3351,
      "ణుడు": 3352,
      "నిర్వహి": 3353,
      "చెబుతున్నారు": 3354,
      "డైలాగులు": 3355,
      "గెలిస్తే": 3356,
      "అంటారా": 3357,
      "అంటావా": 3358,
      "చేసుకున్నాడు": 3359,
      "కరింగ్": 3360,
      "ంటున్నాయి": 3361,
      "ఉద్యోగం": 3362,
      "శీను": 3363,
      "శీలి": 3364,
      "జరుగుతున్న": 3365,
      "తమన్": 3366,
      "దెబ్బలు": 3367,
      "చూసాను": 3368,
      "నమస్కారం": 3369,
      "మనోహర్": 3370,
      "వెల్కమ్": 3371,
      "డియన్స్": 3372,
      "ఆనందంగా": 3373,
      "కాకపోతే": 3374,
      "జాగ్రత్తగా": 3375,
      "చదివి": 3376,
      "యువకుడు": 3377,
      "నటుడు": 3378,
      "అలవా": 3379,
      "వివరించారు": 3380,
      "మామూలుగా": 3381,
      "పెడతా": 3382,
      "లక్ష్మీ": 3383,
      "గ్రహణం": 3384,
      "పూర్వక": 3385,
      "పెడుతున్నారు": 3386,
      "సంస్కృ": 3387,
      "మణిశర్మ": 3388,
      "గుంటూరు": 3389,
      "ప్రయత్ని": 3390,
      "అబద్ధా": 3391,
      "అసలైన": 3392,
      "కడప": 3393,
      "చైతన్య": 3394,
      "కుట్రలు": 3395,
      "విమర్శి": 3396,
      "సాంప్రదా": 3397,
      "గొడవలు": 3398,
      "ఇవన్నీ": 3399,
      "బృహ": 3400,
      "నాగబాబు": 3401,
      "ఎక్కువై": 3402,
      "రామాయణం": 3403,
      "ప్రత్యేక": 3404,
      "అభిప్రాయం": 3405,
      "స్వామీజీ": 3406,
      "పద్ధతి": 3407,
      "సామాన్య": 3408,
      "కార్యకర్తలు": 3409,
      "రచయి": 3410,
      "స్క్రీన్": 3411,
      "మహానుభా": 3412,
      "ఎలక్షన్": 3413,
      "ఏదేమైనా": 3414,
      "గవర్న": 3415,
      "బాబోయ్": 3416,
      "శ్రీకాకుళం": 3417,
      "కృతజ్ఞతలు": 3418,
      "ముగ్గురు": 3419,
      "కలగన్నట్టే": 3420,
      "ంగే": 3421,
      "ంగం": 3422,
      "అనా": 3423,
      "అత్త": 3424,
      "అడ్డ": 3425,
      "అక్కి": 3426,
      "అంబ": 3427,
      "అక్రమ": 3428,
      "అచ్ఛ": 3429,
      "ఆక్": 3430,
      "ఆచార్య": 3431,
      "ఇస్తున్నారు": 3432,
      "ఉంటు": 3433,
      "ఉందో": 3434,
      "ఎపుడు": 3435,
      "ఐన": 3436,
      "కట": 3437,
      "కద": 3438,
      "కమి": 3439,
      "క్రా": 3440,
      "కండ్": 3441,
      "కనుక": 3442,
      "ఖచ్చితంగా": 3443,
      "గల్": 3444,
      "గంటి": 3445,
      "గడ్డ": 3446,
      "చమ్మ": 3447,
      "చైనా": 3448,
      "చస్తున్నాం": 3449,
      "తగ": 3450,
      "త్రీ": 3451,
      "తల్లీ": 3452,
      "దంతా": 3453,
      "దళి": 3454,
      "నగ": 3455,
      "నంగా": 3456,
      "నమే": 3457,
      "నట్లు": 3458,
      "పత": 3459,
      "పండ": 3460,
      "పచ్చి": 3461,
      "పగల": 3462,
      "బండి": 3463,
      "భక్": 3464,
      "భవం": 3465,
      "భద్ర": 3466,
      "భ్యో": 3467,
      "మల": 3468,
      "మజా": 3469,
      "మంగ": 3470,
      "మంగ్లీ": 3471,
      "యమ్మ": 3472,
      "రళ": 3473,
      "రల్": 3474,
      "రకం": 3475,
      "రచ్చ": 3476,
      "వతి": 3477,
      "వైన": 3478,
      "వస్తారు": 3479,
      "వటం": 3480,
      "శూ": 3481,
      "శృ": 3482,
      "శై": 3483,
      "షణ": 3484,
      "సక్": 3485,
      "సంత": 3486,
      "సదా": 3487,
      "ాన్ని": 3488,
      "ేష్": 3489,
      "నికు": 3490,
      "నిను": 3491,
      "నింపు": 3492,
      "స్పీ": 3493,
      "స్మృ": 3494,
      "ర్చి": 3495,
      "ర్రె": 3496,
      "రుణ": 3497,
      "ందరికీ": 3498,
      "కులను": 3499,
      "నార": 3500,
      "నాతో": 3501,
      "నాయన": 3502,
      "నాగార్": 3503,
      "గాడ్": 3504,
      "రారా": 3505,
      "రామా": 3506,
      "రాక్": 3507,
      "రాడ్": 3508,
      "మానికి": 3509,
      "మాఫీ": 3510,
      "ంటో": 3511,
      "ంటర్": 3512,
      "క్కొ": 3513,
      "క్యూ": 3514,
      "రిగా": 3515,
      "రికా": 3516,
      "రిటీ": 3517,
      "రిపీ": 3518,
      "రిగే": 3519,
      "వాలా": 3520,
      "వాస్తు": 3521,
      "కాద": 3522,
      "కాపీ": 3523,
      "కావాల్": 3524,
      "నువు": 3525,
      "లోడ్": 3526,
      "లోటు": 3527,
      "లాడి": 3528,
      "ల్డ్": 3529,
      "స్తపా": 3530,
      "సినీ": 3531,
      "న్నది": 3532,
      "గులకు": 3533,
      "గుర్తి": 3534,
      "గుడ్డ": 3535,
      "గుద్ది": 3536,
      "విల": 3537,
      "విడు": 3538,
      "విడి": 3539,
      "దిరి": 3540,
      "దిగి": 3541,
      "దించాలి": 3542,
      "బాక్": 3543,
      "బాధ్య": 3544,
      "మీలాంటి": 3545,
      "పాపా": 3546,
      "ంతులు": 3547,
      "ప్రణ": 3548,
      "ప్రై": 3549,
      "ప్రొ": 3550,
      "ప్రశాంత": 3551,
      "నీచ": 3552,
      "నీద": 3553,
      "నీవే": 3554,
      "నీవల్ల": 3555,
      "నీళ్లు": 3556,
      "యితే": 3557,
      "ముల": 3558,
      "మురి": 3559,
      "చెయ్యా": 3560,
      "చెబి": 3561,
      "చెల్లె": 3562,
      "సుక్క": 3563,
      "పోల్": 3564,
      "కొరు": 3565,
      "కొద్ది": 3566,
      "యానికి": 3567,
      "దాడులు": 3568,
      "మిడి": 3569,
      "మిలి": 3570,
      "మినే": 3571,
      "పిలు": 3572,
      "పిలి": 3573,
      "పిల్లా": 3574,
      "పిలవ": 3575,
      "పిత్తప్పా": 3576,
      "పింఛ": 3577,
      "చూపు": 3578,
      "చూస్తా": 3579,
      "పెద": 3580,
      "పెట్రోల్": 3581,
      "త్తుకు": 3582,
      "ష్టు": 3583,
      "టివి": 3584,
      "టిడిపి": 3585,
      "డ్కా": 3586,
      "డ్డం": 3587,
      "స్తుందే": 3588,
      "వేళ": 3589,
      "వేచి": 3590,
      "తెగ": 3591,
      "అన్నట్టు": 3592,
      "అన్నదమ్ము": 3593,
      "సూపిత్తప్పా": 3594,
      "ప్పులు": 3595,
      "వీలు": 3596,
      "మెసేజ్": 3597,
      "తోడు": 3598,
      "సంపద": 3599,
      "రేంజ్": 3600,
      "మేలు": 3601,
      "వెకి": 3602,
      "పాటకు": 3603,
      "పాటను": 3604,
      "జాన్": 3605,
      "జాగ్": 3606,
      "జాయ్": 3607,
      "చెప్పలేదు": 3608,
      "చెప్పేది": 3609,
      "స్ట్రా": 3610,
      "టీజర్": 3611,
      "బాగుంటది": 3612,
      "వాళ్ళకు": 3613,
      "భాయ్": 3614,
      "స్కిట్టు": 3615,
      "చుకు": 3616,
      "చుక్క": 3617,
      "స్తాన్": 3618,
      "చేసినా": 3619,
      "సీతా": 3620,
      "సీబీ": 3621,
      "జిల్లా": 3622,
      "హామీ": 3623,
      "ంటాడు": 3624,
      "ఎందుకూ": 3625,
      "ంట్లో": 3626,
      "అంతకు": 3627,
      "డేమో": 3628,
      "వైసిపి": 3629,
      "వైజాగ్": 3630,
      "ఉన్నంత": 3631,
      "ఉన్నప్పుడు": 3632,
      "యోగి": 3633,
      "గొర్రె": 3634,
      "పూరి": 3635,
      "పూర్తి": 3636,
      "లెవల్": 3637,
      "అర్ధ": 3638,
      "ఉండరు": 3639,
      "చూడటానికి": 3640,
      "బిజె": 3641,
      "గోపి": 3642,
      "నిజమైన": 3643,
      "మార్పు": 3644,
      "మార్కులు": 3645,
      "ఎలాగ": 3646,
      "గురువులు": 3647,
      "అవతా": 3648,
      "సెక్స్": 3649,
      "నెక్": 3650,
      "నెమలి": 3651,
      "పొడు": 3652,
      "బోతు": 3653,
      "బోయే": 3654,
      "పరిచ": 3655,
      "పరిశీలి": 3656,
      "ఆర్జీవీ": 3657,
      "డైరెక్": 3658,
      "వీడిని": 3659,
      "దొబ్బి": 3660,
      "పైగా": 3661,
      "యాంకరింగ్": 3662,
      "కళా": 3663,
      "మాట్లాడిన": 3664,
      "చూపించి": 3665,
      "దేవుడి": 3666,
      "ఇంతకు": 3667,
      "ఫ్ట్": 3668,
      "చెప్పినా": 3669,
      "పడింది": 3670,
      "ఇవ్వలేదు": 3671,
      "నూరు": 3672,
      "అందరిని": 3673,
      "నవ్వులు": 3674,
      "బీడీ": 3675,
      "సర్వ": 3676,
      "తొందర": 3677,
      "పడతారు": 3678,
      "పట్టిన": 3679,
      "మంత్ర": 3680,
      "దూరంగా": 3681,
      "మొదట": 3682,
      "చంపి": 3683,
      "భగవంతు": 3684,
      "చెప్పాడు": 3685,
      "ఫిక్స్": 3686,
      "భారతం": 3687,
      "సొమ్ము": 3688,
      "కొంప": 3689,
      "ఇద్దరూ": 3690,
      "అమ్మాయిలు": 3691,
      "ఇప్పటివరకు": 3692,
      "వచ్చేత్తప్పా": 3693,
      "వచ్చేస్తపా": 3694,
      "బూతులు": 3695,
      "దమ్ముంటే": 3696,
      "పెట్టాడు": 3697,
      "ఉద్యోగాలు": 3698,
      "కనిపించ": 3699,
      "వార్త": 3700,
      "ముఖ్యం": 3701,
      "సమస్యలు": 3702,
      "ంపుల్": 3703,
      "మంకీ": 3704,
      "పోలీసులు": 3705,
      "దరిద్రంగా": 3706,
      "అడ్ర": 3707,
      "ఎప్పుడో": 3708,
      "పండుగ": 3709,
      "ఫైమా": 3710,
      "అడిగి": 3711,
      "శోభ": 3712,
      "చేతికి": 3713,
      "శాస్త్రం": 3714,
      "జన్మదిన": 3715,
      "కళ్ళల్లో": 3716,
      "పుట్టాయి": 3717,
      "ఇంటికి": 3718,
      "అప్పుడ": 3719,
      "యంత్ర": 3720,
      "అరుణా": 3721,
      "రామోజీరావు": 3722,
      "వైఎస్ఆర్": 3723,
      "గట్టిగా": 3724,
      "చట్టం": 3725,
      "తృప్తి": 3726,
      "సంక్రా": 3727,
      "ధైర్యం": 3728,
      "కావట్లేదు": 3729,
      "ప్రేక్షకులకు": 3730,
      "చిక్కుబుక్కు": 3731,
      "ఉత్తమ": 3732,
      "కాన్సె": 3733,
      "పల్లెటూరు": 3734,
      "ప్యాకేజీ": 3735,
      "ఎక్సట్రా": 3736,
      "క్లాస్": 3737,
      "సుధాకర్": 3738,
      "దృష్టిలో": 3739,
      "అశోక్": 3740,
      "ఆస్కార్": 3741,
      "మేడమ్": 3742,
      "గ్రంథ": 3743,
      "క్రైస్త": 3744,
      "ఉదాహ": 3745,
      "నందిని": 3746,
      "అనసూయ": 3747,
      "వివేకానంద": 3748,
      "కొరియోగ్ర": 3749,
      "ఓవరాక్షన్": 3750,
      "డుగ్గాని": 3751,
      "జబర్థస్త్": 3752,
      "పరిశ్రమ": 3753,
      "అక్కినేని": 3754,
      "చమ్మక్": 3755,
      "స్మృతి": 3756,
      "నాగార్జున": 3757,
      "రామారావు": 3758,
      "చెబితే": 3759,
      "బిజెపి": 3760,
      "అప": 3761,
      "అమి": 3762,
      "అద్ద": 3763,
      "అపుడు": 3764,
      "అటువంటి": 3765,
      "అభ్య": 3766,
      "ఆం": 3767,
      "ఆన్": 3768,
      "ఆలా": 3769,
      "ఆపి": 3770,
      "ఆపు": 3771,
      "ఆశీ": 3772,
      "ఇక్క": 3773,
      "ఇతరు": 3774,
      "ఈమధ్య": 3775,
      "ఉగ్ర": 3776,
      "ఉంటె": 3777,
      "ఊర": 3778,
      "ఎడ": 3779,
      "ఎమి": 3780,
      "ఎదుర్": 3781,
      "ఎత్తు": 3782,
      "ఎనర్": 3783,
      "ఏక్": 3784,
      "ఏజ్": 3785,
      "ఏమాత్రం": 3786,
      "ఐశ్వర్": 3787,
      "ఓక": 3788,
      "ఓరి": 3789,
      "ఓటింగ్": 3790,
      "కన్": 3791,
      "కవి": 3792,
      "కలం": 3793,
      "కరువు": 3794,
      "కరేజ్": 3795,
      "ఖ్య": 3796,
      "ఖచ్చి": 3797,
      "గణ": 3798,
      "గరు": 3799,
      "ఘా": 3800,
      "చదవ": 3801,
      "జత": 3802,
      "జంట": 3803,
      "జారు": 3804,
      "డబ్బా": 3805,
      "ణంగా": 3806,
      "థమన్": 3807,
      "దౌర్": 3808,
      "ధూ": 3809,
      "ధులు": 3810,
      "నల": 3811,
      "నమా": 3812,
      "నకి": 3813,
      "నచ్చు": 3814,
      "నచ్చా": 3815,
      "పదాలు": 3816,
      "పట్ల": 3817,
      "ఫరె": 3818,
      "బట్": 3819,
      "బహి": 3820,
      "భయ్యా": 3821,
      "మంద": 3822,
      "మగా": 3823,
      "రకాలు": 3824,
      "వద్ద": 3825,
      "శక్": 3826,
      "శ్యా": 3827,
      "శరీ": 3828,
      "ష్యం": 3829,
      "సన్నా": 3830,
      "సచ్చి": 3831,
      "హత": 3832,
      "ుల": 3833,
      "ుని": 3834,
      "్రులు": 3835,
      "న్లు": 3836,
      "నియర్": 3837,
      "స్వే": 3838,
      "స్వర": 3839,
      "స్సులు": 3840,
      "స్పంది": 3841,
      "ర్లో": 3842,
      "ర్టై": 3843,
      "ందె": 3844,
      "కుడా": 3845,
      "నారా": 3846,
      "గాత్రం": 3847,
      "ట్సా": 3848,
      "రాక": 3849,
      "మావ": 3850,
      "మాణి": 3851,
      "క్కాని": 3852,
      "రిషి": 3853,
      "వాళ": 3854,
      "వాస": 3855,
      "వాక్": 3856,
      "వారే": 3857,
      "వాల్ల": 3858,
      "కావడం": 3859,
      "కారాలు": 3860,
      "కాబట్టే": 3861,
      "డిగి": 3862,
      "లాభం": 3863,
      "ల్సిందే": 3864,
      "స్తది": 3865,
      "సిద్": 3866,
      "సిద్ధ": 3867,
      "సిద్ధా": 3868,
      "సిడెంట్": 3869,
      "ప్త": 3870,
      "ప్తంగా": 3871,
      "చేరి": 3872,
      "చేస్తు": 3873,
      "చేద్దాం": 3874,
      "చేసుకోండి": 3875,
      "చేస్తుంటే": 3876,
      "గుంది": 3877,
      "విన్": 3878,
      "వినే": 3879,
      "విడ్": 3880,
      "వింటూ": 3881,
      "విశ్వ": 3882,
      "వుడు": 3883,
      "దిశ": 3884,
      "దిక్కు": 3885,
      "బావ": 3886,
      "ట్టూ": 3887,
      "మీరూ": 3888,
      "మీటింగ్": 3889,
      "పాద": 3890,
      "పారి": 3891,
      "పాలకు": 3892,
      "పారేయ్": 3893,
      "సాలు": 3894,
      "సారా": 3895,
      "ంతే": 3896,
      "చాగంటి": 3897,
      "ప్రయా": 3898,
      "ప్రకారం": 3899,
      "ప్రకటి": 3900,
      "కోలు": 3901,
      "కోవిడ్": 3902,
      "యిల్": 3903,
      "ముగి": 3904,
      "ముక్కు": 3905,
      "చెయ": 3906,
      "చెయ్యాలి": 3907,
      "సురు": 3908,
      "సుత్తి": 3909,
      "తిక్క": 3910,
      "గ్గా": 3911,
      "గ్లా": 3912,
      "గ్లక్": 3913,
      "కొను": 3914,
      "కొవ్": 3915,
      "కొట్టా": 3916,
      "కొట్టాలి": 3917,
      "దాసు": 3918,
      "పిక": 3919,
      "చూసుకోండి": 3920,
      "త్తులు": 3921,
      "టికీ": 3922,
      "క్కర్": 3923,
      "పువ్వు": 3924,
      "వేట్": 3925,
      "దేనికి": 3926,
      "తాయై": 3927,
      "సినిమాల": 3928,
      "సినిమాని": 3929,
      "తెచ్చి": 3930,
      "తెల్ల": 3931,
      "అన్నకు": 3932,
      "అన్నపూర్ణ": 3933,
      "సూర్యు": 3934,
      "ప్పుడూ": 3935,
      "బులు": 3936,
      "బుల్": 3937,
      "బుర్ర": 3938,
      "కూల్": 3939,
      "రోడ్": 3940,
      "తోడ": 3941,
      "తోటి": 3942,
      "సంపూర్ణ": 3943,
      "వెచ్చ": 3944,
      "వెక్కి": 3945,
      "వెళ్ళా": 3946,
      "రంగుల": 3947,
      "పాటల": 3948,
      "రెట్లు": 3949,
      "తీస్తే": 3950,
      "తీయాలి": 3951,
      "త్రా": 3952,
      "జాల": 3953,
      "జానా": 3954,
      "జాయి": 3955,
      "జాబ్": 3956,
      "చెప్పకుండా": 3957,
      "స్టూ": 3958,
      "హిట్టు": 3959,
      "వర్షం": 3960,
      "జీరో": 3961,
      "జీతం": 3962,
      "శ్రీని": 3963,
      "లీస్": 3964,
      "స్కిట్లో": 3965,
      "శాల": 3966,
      "శాతం": 3967,
      "ఎవడికి": 3968,
      "మూర్తి": 3969,
      "స్తారా": 3970,
      "మొడ్డ": 3971,
      "హార్": 3972,
      "అయిపోయింది": 3973,
      "మరింత": 3974,
      "కుంటుంది": 3975,
      "గురుభ్యో": 3976,
      "ధాని": 3977,
      "ఒక్కరు": 3978,
      "ఒక్కడు": 3979,
      "ఒక్కడే": 3980,
      "ఉన్నట్టు": 3981,
      "గ్రహి": 3982,
      "గ్రంధా": 3983,
      "ంచుకోరు": 3984,
      "జగన్మోహన్": 3985,
      "చూడలేదు": 3986,
      "ఎందుకురా": 3987,
      "స్తున్నావు": 3988,
      "గోపీ": 3989,
      "ప్రజలారా": 3990,
      "లైన్": 3991,
      "కెవ్వు": 3992,
      "మాటల": 3993,
      "అవమాని": 3994,
      "శంకర": 3995,
      "తున్నావు": 3996,
      "అలానే": 3997,
      "గంగ": 3998,
      "పైకి": 3999,
      "స్వార్థ": 4000,
      "ందేమో": 4001,
      "తప్పకుండా": 4002,
      "సోడా": 4003,
      "మాట్లాడితే": 4004,
      "చూపిస్తే": 4005,
      "ముందుగా": 4006,
      "ద్రో": 4007,
      "బొచ్చు": 4008,
      "కొడుతుంది": 4009,
      "టాక్": 4010,
      "ఇంతకీ": 4011,
      "గలరా": 4012,
      "ఇంద్రజా": 4013,
      "చేసేది": 4014,
      "జెక్టు": 4015,
      "చేసినట్టు": 4016,
      "ఎంజాయ్": 4017,
      "ఎంకరేజ్": 4018,
      "గొప్పగా": 4019,
      "ణాల": 4020,
      "సైని": 4021,
      "తొక్కు": 4022,
      "తొడలు": 4023,
      "సాధించ": 4024,
      "క్రిస్టి": 4025,
      "అయ్యారు": 4026,
      "వినడం": 4027,
      "దూల": 4028,
      "గుర్తొ": 4029,
      "ఉంటాడు": 4030,
      "ఉంటాది": 4031,
      "చంప": 4032,
      "మర్యాద": 4033,
      "ఫాలో": 4034,
      "పరచ": 4035,
      "చెప్తా": 4036,
      "చెప్తున్నా": 4037,
      "అనడం": 4038,
      "అయ్యో": 4039,
      "అధికార": 4040,
      "అధికారు": 4041,
      "జడ్జీ": 4042,
      "దరిద్": 4043,
      "గాడికి": 4044,
      "సొంత": 4045,
      "యాక్టర్": 4046,
      "చేస్తాను": 4047,
      "విషయంలో": 4048,
      "దేశీ": 4049,
      "డూపర్": 4050,
      "ఎవరిని": 4051,
      "ఎవరికైనా": 4052,
      "ఇప్పటికే": 4053,
      "చేస్తున్నావ్": 4054,
      "నమ్మకం": 4055,
      "చేసుకున్న": 4056,
      "జాతక": 4057,
      "చీర": 4058,
      "ఛానె": 4059,
      "అవినా": 4060,
      "ఆమెను": 4061,
      "ఉద్యోగ": 4062,
      "ఉద్యోగులు": 4063,
      "రాముని": 4064,
      "వార్తలు": 4065,
      "చేసుకోవడం": 4066,
      "వున్నాయి": 4067,
      "వున్నది": 4068,
      "సంబంధి": 4069,
      "ఇచ్చాడు": 4070,
      "మౌర్య": 4071,
      "జ్యోతిషం": 4072,
      "లవడా": 4073,
      "పురాణం": 4074,
      "వీళ్ళకి": 4075,
      "ఫైమ": 4076,
      "క్రీస్తు": 4077,
      "సందర్": 4078,
      "వెధవలు": 4079,
      "ముస్లి": 4080,
      "కొట్టండి": 4081,
      "కొట్టడం": 4082,
      "శాస్త్ర": 4083,
      "ఎప్పటికీ": 4084,
      "మతాల": 4085,
      "చదివే": 4086,
      "నచ్చలేదు": 4087,
      "అరకోడి": 4088,
      "అప్పులు": 4089,
      "చర్ల": 4090,
      "ధరలు": 4091,
      "వింటున్న": 4092,
      "ప్రోగ్రామ్": 4093,
      "వయసులో": 4094,
      "ఎక్స్ట్రా": 4095,
      "ఎక్కడి": 4096,
      "ఖాన్": 4097,
      "ఫలితంగా": 4098,
      "యాదమ్మ": 4099,
      "చనిపోయిన": 4100,
      "మనుషుల": 4101,
      "లక్ష్మి": 4102,
      "నమ్ముతారు": 4103,
      "వివాహం": 4104,
      "డాన్సర్": 4105,
      "నేర్పించింది": 4106,
      "చూశాను": 4107,
      "ఏందిరా": 4108,
      "భర్త": 4109,
      "రాహువు": 4110,
      "మాంసంతో": 4111,
      "గుంటూర్ని": 4112,
      "కూర్చో": 4113,
      "సెక్సీ": 4114,
      "పాదాభివందనాలు": 4115,
      "పెరుగుతుంది": 4116,
      "చిక్కుబుక్కాని": 4117,
      "రజాకార్ల": 4118,
      "ఎమ్మె": 4119,
      "రాశర": 4120,
      "వాటిని": 4121,
      "చానల్స్": 4122,
      "రాజ్యాంగం": 4123,
      "జలగ": 4124,
      "నక్షత్ర": 4125,
      "నక్షత్రం": 4126,
      "వస్తది": 4127,
      "ప్రస్తుత": 4128,
      "ప్రస్తుతం": 4129,
      "భాగవ": 4130,
      "వ్యతిరేకంగా": 4131,
      "ఆలోచన": 4132,
      "ఆలోచనలు": 4133,
      "కుటుంబా": 4134,
      "తరగతి": 4135,
      "విశ్లే": 4136,
      "పుట్టింది": 4137,
      "ఫ్రమ్": 4138,
      "ఫార్మెన్స్": 4139,
      "సుడిగాలి": 4140,
      "థాంక్స్": 4141,
      "కావాలంటే": 4142,
      "లోకంలో": 4143,
      "పిచ్చో": 4144,
      "పెండ్లి": 4145,
      "ఎన్నికల్లో": 4146,
      "నిర్ణయం": 4147,
      "వ్యాపార": 4148,
      "చర్యలు": 4149,
      "పద్మ": 4150,
      "బతికే": 4151,
      "రోగ్య": 4152,
      "బ్రిటీ": 4153,
      "బ్రహ్మా": 4154,
      "వాలంటీర్": 4155,
      "హైదరాబాద్": 4156,
      "బహుశా": 4157,
      "మరెన్నో": 4158,
      "షర్మిల": 4159,
      "నిరుద్యో": 4160,
      "కుందాం": 4161,
      "గవర్నమెంట్": 4162,
      "పండగ": 4163,
      "మజాకా": 4164,
      "సక్సెస్": 4165,
      "నెక్స్ట్": 4166,
      "శోభనం": 4167,
      "సంక్రాంతి": 4168,
      "ఉదాహరణ": 4169,
      "కొరియోగ్రఫీ": 4170,
      "ఖచ్చితమైన": 4171,
      "ంపే": 4172,
      "అట్ట": 4173,
      "అగ్": 4174,
      "అవే": 4175,
      "అంటు": 4176,
      "అత్య": 4177,
      "అట్లా": 4178,
      "అసహ": 4179,
      "అపుడే": 4180,
      "ఆవే": 4181,
      "ఆక్ర": 4182,
      "ఆడియో": 4183,
      "ఇచ్": 4184,
      "ఇరగ": 4185,
      "ఉగా": 4186,
      "ఉత్": 4187,
      "ఉనికి": 4188,
      "ఎంది": 4189,
      "ఎది": 4190,
      "ఎగ్": 4191,
      "ఎండ": 4192,
      "ఎక్కి": 4193,
      "ఎగిరి": 4194,
      "ఏదీ": 4195,
      "ఏళ్లు": 4196,
      "ఏడిపి": 4197,
      "ఒక్కొ": 4198,
      "ఓన్": 4199,
      "ఓర్": 4200,
      "ఓటమి": 4201,
      "కరా": 4202,
      "కక్ష": 4203,
      "కళ్లు": 4204,
      "కపోయినా": 4205,
      "ఖు": 4206,
      "గట్టు": 4207,
      "గబ్బు": 4208,
      "చలి": 4209,
      "చల్ల": 4210,
      "చక్ర": 4211,
      "జబ్": 4212,
      "టలు": 4213,
      "టల్": 4214,
      "టరీ": 4215,
      "టార్": 4216,
      "డతారు": 4217,
      "తది": 4218,
      "తమి": 4219,
      "తక్కు": 4220,
      "తటు": 4221,
      "తగల": 4222,
      "తగులు": 4223,
      "తగిన": 4224,
      "తత్వ": 4225,
      "తకాలి": 4226,
      "దక్షి": 4227,
      "దండాలు": 4228,
      "ధో": 4229,
      "నను": 4230,
      "నంటే": 4231,
      "పట": 4232,
      "పన": 4233,
      "పస": 4234,
      "పంట": 4235,
      "పశు": 4236,
      "ఫ్రీ": 4237,
      "ఫ్యూ": 4238,
      "బల్": 4239,
      "బడిన": 4240,
      "బరువు": 4241,
      "బ్యూ": 4242,
      "బదులు": 4243,
      "మస్": 4244,
      "మతి": 4245,
      "మండ": 4246,
      "మల్ల": 4247,
      "మయ్యో": 4248,
      "యీ": 4249,
      "రద": 4250,
      "రశ్": 4251,
      "రక్షి": 4252,
      "రయ్యో": 4253,
      "ల్యా": 4254,
      "లబ్": 4255,
      "లమ్మ": 4256,
      "వడ": 4257,
      "వన": 4258,
      "వలి": 4259,
      "వరికి": 4260,
      "వల్లా": 4261,
      "శ్య": 4262,
      "షర్ట్": 4263,
      "సల": 4264,
      "సగం": 4265,
      "సంతా": 4266,
      "సభ్య": 4267,
      "హహ": 4268,
      "ేద్": 4269,
      "ైతే": 4270,
      "నిగ": 4271,
      "నియో": 4272,
      "నిండు": 4273,
      "నిత్యా": 4274,
      "స్నా": 4275,
      "స్వీ": 4276,
      "స్వర్": 4277,
      "స్వచ్": 4278,
      "స్మై": 4279,
      "ర్న్": 4280,
      "్రోల్": 4281,
      "కుడి": 4282,
      "కుంది": 4283,
      "కునో": 4284,
      "నామ": 4285,
      "నామా": 4286,
      "నాకొడుకు": 4287,
      "నాయ్యో": 4288,
      "నాస్తి": 4289,
      "గాక": 4290,
      "గాయ": 4291,
      "గాన్ని": 4292,
      "గారే": 4293,
      "గాలను": 4294,
      "ట్లే": 4295,
      "రాలి": 4296,
      "రాంచ": 4297,
      "రాజీ": 4298,
      "రాళ్ళు": 4299,
      "మాను": 4300,
      "మాఫి": 4301,
      "మాచర్ల": 4302,
      "ంట్రా": 4303,
      "వాన": 4304,
      "వాహ": 4305,
      "వాని": 4306,
      "వాసం": 4307,
      "కించ": 4308,
      "కిరాక్": 4309,
      "కామా": 4310,
      "నులే": 4311,
      "డికే": 4312,
      "లోకం": 4313,
      "లాప్": 4314,
      "చిర": 4315,
      "ప్లే": 4316,
      "ప్టీ": 4317,
      "చేస్త": 4318,
      "చేతు": 4319,
      "చేమంత": 4320,
      "గుని": 4321,
      "గుద్ద": 4322,
      "లిపి": 4323,
      "లిటి": 4324,
      "వివ": 4325,
      "వినో": 4326,
      "విడియో": 4327,
      "విశాఖ": 4328,
      "విదేశీ": 4329,
      "వుగా": 4330,
      "వుండి": 4331,
      "వులకు": 4332,
      "వుడే": 4333,
      "న్నాని": 4334,
      "ప్పె": 4335,
      "దిక": 4336,
      "దించ": 4337,
      "దిద్దు": 4338,
      "దుడు": 4339,
      "దుమ్ము": 4340,
      "బాం": 4341,
      "బాధా": 4342,
      "పారు": 4343,
      "పాకి": 4344,
      "సాగు": 4345,
      "సామీ": 4346,
      "సామాన్": 4347,
      "సాదించాలి": 4348,
      "ప్రూ": 4349,
      "ప్రభా": 4350,
      "ప్రార్": 4351,
      "ప్రకృ": 4352,
      "నీకి": 4353,
      "నీవల్లా": 4354,
      "కోట": 4355,
      "యిక": 4356,
      "యింగ్": 4357,
      "యిలర్": 4358,
      "తులను": 4359,
      "నేల": 4360,
      "నేడు": 4361,
      "నేటి": 4362,
      "నేనె": 4363,
      "నేనో": 4364,
      "నేరుగా": 4365,
      "ముర": 4366,
      "ముగ్గు": 4367,
      "చెన్న": 4368,
      "చెలి": 4369,
      "చెట్టు": 4370,
      "సునీ": 4371,
      "సుపు": 4372,
      "తియ్య": 4373,
      "గ్స్": 4374,
      "పోనీ": 4375,
      "పోరం": 4376,
      "పోలవ": 4377,
      "కొనే": 4378,
      "యాలని": 4379,
      "దాటి": 4380,
      "దానం": 4381,
      "మిక": 4382,
      "మిని": 4383,
      "మిత్రు": 4384,
      "పించ": 4385,
      "పించాలి": 4386,
      "పితృ": 4387,
      "చూస్తు": 4388,
      "చూసుకో": 4389,
      "చూపులు": 4390,
      "పెంట": 4391,
      "పెంచు": 4392,
      "టిక్": 4393,
      "ళ్ళో": 4394,
      "పుల్": 4395,
      "వేడి": 4396,
      "వేయాలి": 4397,
      "దేశి": 4398,
      "తానా": 4399,
      "తాతా": 4400,
      "వీక్": 4401,
      "ంచో": 4402,
      "ంచలేదు": 4403,
      "ంచమని": 4404,
      "మెద": 4405,
      "మెయిన్": 4406,
      "సూపర్బ్": 4407,
      "కేరళ": 4408,
      "సంస్థ": 4409,
      "రేమో": 4410,
      "మనమే": 4411,
      "గిల్లి": 4412,
      "వెళ్ల": 4413,
      "రంగ": 4414,
      "రెట్": 4415,
      "రెచ్చ": 4416,
      "రెడ్లు": 4417,
      "తీసుకొని": 4418,
      "చ్చిన": 4419,
      "జానే": 4420,
      "చెప్పగలరు": 4421,
      "స్టులు": 4422,
      "బాగున్నారు": 4423,
      "బాగుండాలి": 4424,
      "జ్జ": 4425,
      "జీతాలు": 4426,
      "లీల": 4427,
      "క్కుని": 4428,
      "ఎవరంటే": 4429,
      "చుకుంటే": 4430,
      "మోదీ": 4431,
      "మోడ్డ": 4432,
      "ఇంజ": 4433,
      "తెలుపు": 4434,
      "యులు": 4435,
      "పేపర్": 4436,
      "పేరే": 4437,
      "చేయని": 4438,
      "సీరియ": 4439,
      "అయిపోయా": 4440,
      "మరిచి": 4441,
      "మరిన్ని": 4442,
      "వైవర్త": 4443,
      "యోగం": 4444,
      "గొట్టు": 4445,
      "గొట్టి": 4446,
      "గొట్టే": 4447,
      "పూజి": 4448,
      "బ్రె": 4449,
      "బ్రతి": 4450,
      "సినట్టే": 4451,
      "లెస్": 4452,
      "రోజున": 4453,
      "యూత్": 4454,
      "అర్హత": 4455,
      "తెలియాలి": 4456,
      "తెలిసింది": 4457,
      "ంచుకొని": 4458,
      "ఉండవు": 4459,
      "చూడటం": 4460,
      "బిగ్": 4461,
      "స్తున్నాను": 4462,
      "యేసు": 4463,
      "లైతే": 4464,
      "లైంగి": 4465,
      "మార్చారు": 4466,
      "రాజ్యం": 4467,
      "రాజధాని": 4468,
      "కెమి": 4469,
      "పొంద": 4470,
      "పొందా": 4471,
      "శంకర్": 4472,
      "ఉన్నాయ్": 4473,
      "ఆర్టి": 4474,
      "కంగ్రా": 4475,
      "తనకు": 4476,
      "ట్లుగా": 4477,
      "ఇలాంటివి": 4478,
      "తున్నాము": 4479,
      "ద్యం": 4480,
      "అనేక": 4481,
      "బెట్టి": 4482,
      "కోరుకుంటున్నారు": 4483,
      "న్నుల్లో": 4484,
      "గంజాయి": 4485,
      "స్వాగతం": 4486,
      "యాంగి": 4487,
      "తప్పక": 4488,
      "సోషల్": 4489,
      "చూపిస్తారు": 4490,
      "చూపించడం": 4491,
      "దేవుడిని": 4492,
      "ర్యంగా": 4493,
      "ముందుకు": 4494,
      "ప్రాణాలు": 4495,
      "బొంగు": 4496,
      "ంచినందుకు": 4497,
      "పెట్టుకున్న": 4498,
      "పెట్టుకుంటే": 4499,
      "పెట్టుకుంటా": 4500,
      "గలడు": 4501,
      "పార్ట్": 4502,
      "ంగీ": 4503,
      "ఇవ్వరు": 4504,
      "కలయిక": 4505,
      "మళ్ళి": 4506,
      "నాయమ్మా": 4507,
      "న్యై": 4508,
      "అందరినీ": 4509,
      "స్తూనే": 4510,
      "పార్టీలు": 4511,
      "పార్టీకి": 4512,
      "ఎక్కువగా": 4513,
      "క్రియే": 4514,
      "చిరంజీవ": 4515,
      "మైతే": 4516,
      "ఆయనకు": 4517,
      "కామెంట్లు": 4518,
      "అయ్యాడు": 4519,
      "భూతి": 4520,
      "తప్పులు": 4521,
      "వలసిన": 4522,
      "చంపు": 4523,
      "భగవ": 4524,
      "నలుగురు": 4525,
      "సరదా": 4526,
      "సరస్వ": 4527,
      "చెప్తున్నారు": 4528,
      "దగ్గరికి": 4529,
      "కున్నాడు": 4530,
      "ఆడవాళ్ళని": 4531,
      "జోక్": 4532,
      "జోకులు": 4533,
      "భారతీ": 4534,
      "ఎంతోమంది": 4535,
      "మరల": 4536,
      "మరచి": 4537,
      "వదిలె": 4538,
      "వచ్చినప్పుడు": 4539,
      "ఏడుస్తుందే": 4540,
      "నిర్మాత": 4541,
      "ప్రభుత్వానికి": 4542,
      "ఎవరికీ": 4543,
      "నిజంగానే": 4544,
      "చేసుకుంటే": 4545,
      "చేసుకుంటా": 4546,
      "మానవత్": 4547,
      "ంగిన": 4548,
      "గుండెల్లో": 4549,
      "కష్టపడి": 4550,
      "కష్టాలు": 4551,
      "వోడ్కా": 4552,
      "పోయేలా": 4553,
      "బ్రహ్మవైవర్త": 4554,
      "ంపులు": 4555,
      "బలమైన": 4556,
      "బలహీ": 4557,
      "న్యాయ": 4558,
      "చూసినప్పుడు": 4559,
      "ఉండేవి": 4560,
      "భయపడ": 4561,
      "రొమా": 4562,
      "దేశాన్ని": 4563,
      "చేసుకోవడానికి": 4564,
      "చక్కని": 4565,
      "టెక్": 4566,
      "వయస్సు": 4567,
      "సంబంధా": 4568,
      "థియేటర్స్": 4569,
      "థియేటర్లో": 4570,
      "డమేమి": 4571,
      "మౌనం": 4572,
      "వాల్సిన": 4573,
      "వాల్సిందే": 4574,
      "పండుని": 4575,
      "ఎవ్వడు": 4576,
      "ఎవ్వరూ": 4577,
      "కుక్కలు": 4578,
      "త్మక": 4579,
      "పురాణా": 4580,
      "తీయడం": 4581,
      "సింహా": 4582,
      "దర్శన": 4583,
      "పెట్టుకోండి": 4584,
      "ఇష్టమైన": 4585,
      "కళ్ళతో": 4586,
      "తయార": 4587,
      "తండ్రికి": 4588,
      "వస్తువు": 4589,
      "వ్యాప్తంగా": 4590,
      "హత్యలు": 4591,
      "విన్నాను": 4592,
      "ఎంటో": 4593,
      "ఎంటర్టై": 4594,
      "మారుతుంది": 4595,
      "కాపాడు": 4596,
      "సంగీత": 4597,
      "వెళ్ళిపోమాకే": 4598,
      "మారదు": 4599,
      "నేర్చుకో": 4600,
      "కులాలు": 4601,
      "కార్యక్ర": 4602,
      "పరిష్కార": 4603,
      "భారతదేశం": 4604,
      "ఫలితాలు": 4605,
      "పోతున్నాం": 4606,
      "పోతున్నాము": 4607,
      "శతకోటి": 4608,
      "శతరూప": 4609,
      "షేర్": 4610,
      "కుమార్తె": 4611,
      "వుండవు": 4612,
      "దారుణం": 4613,
      "త్వరలో": 4614,
      "మనుషులే": 4615,
      "మ్యాన్": 4616,
      "హృద": 4617,
      "మామూలు": 4618,
      "ధర్మాన్ని": 4619,
      "వివాహ": 4620,
      "సంఘం": 4621,
      "వెళ్లా": 4622,
      "వైఎస్సార్": 4623,
      "కుర్చీని": 4624,
      "ఆధార": 4625,
      "నటించిన": 4626,
      "బడును": 4627,
      "బంధు": 4628,
      "ప్రవచనాలు": 4629,
      "పోరాటం": 4630,
      "సంస్కారం": 4631,
      "రూపంలో": 4632,
      "రాష్ట్రానికి": 4633,
      "ధైర్యంగా": 4634,
      "ప్లాన్": 4635,
      "ప్లాప్": 4636,
      "ప్రయత్నం": 4637,
      "పాదాభివందనం": 4638,
      "అప్లోడ్": 4639,
      "తట్టుకోడం": 4640,
      "వాస్తవాలు": 4641,
      "స్థాయికి": 4642,
      "ప్రశ్నకు": 4643,
      "ఇండస్ట్రీలో": 4644,
      "విమర్శ": 4645,
      "బాగోలేదు": 4646,
      "కొరత": 4647,
      "జీవితాన్ని": 4648,
      "దొరికింది": 4649,
      "మూర్ఖులు": 4650,
      "అమాయక": 4651,
      "అవార్డు": 4652,
      "అనుకుంటున్నాను": 4653,
      "సెలబ్రిటీ": 4654,
      "పెన్షన్": 4655,
      "పబ్లిక్": 4656,
      "పబ్లిసిటీ": 4657,
      "రికార్డ్స్": 4658,
      "బాలికా": 4659,
      "మేధావి": 4660,
      "ఊరికే": 4661,
      "పత్రిక": 4662,
      "క్లియర్": 4663,
      "బానిస": 4664,
      "అధికారులు": 4665,
      "వెంకటే": 4666,
      "ఆఖరికి": 4667,
      "కంట్రోల్": 4668,
      "చరణం": 4669,
      "అనవసర": 4670,
      "ఫిల్మ్": 4671,
      "ఇంకొకరు": 4672,
      "ల్యే": 4673,
      "కార్తిక్": 4674,
      "వివరణ": 4675,
      "పాజిటివ్": 4676,
      "వెలుగు": 4677,
      "గోవిందా": 4678,
      "ఎక్కువైంది": 4679,
      "రచయిత": 4680,
      "అంబేద్": 4681,
      "మంగళ": 4682,
      "రిపీట్": 4683,
      "కావాల్సింది": 4684,
      "విలన్": 4685,
      "బాధ్యత": 4686,
      "వెకిలి": 4687,
      "పరిచయం": 4688,
      "డైరెక్ట్": 4689,
      "దొబ్బింది": 4690,
      "అడ్రస్": 4691,
      "కాన్సెప్ట్": 4692,
      "ఐశ్వర్య": 4693,
      "దౌర్జన్": 4694,
      "సన్నాసి": 4695,
      "డిగిందే": 4696,
      "వెచ్చన": 4697,
      "అవినాష్": 4698,
      "ఎమ్మెల్యే": 4699,
      "ఉగాది": 4700,
      "ఒక్కొక్క": 4701,
      "ఓన్లీ": 4702,
      "జబ్బర్": 4703,
      "తక్కువే": 4704,
      "తటుకోడం": 4705,
      "కునోల్లో": 4706,
      "రాంచరణ్": 4707,
      "మాఫియా": 4708,
      "ఎంటర్టైన్": 4709,
      "ంపి": 4710,
      "అసి": 4711,
      "అమె": 4712,
      "అమో": 4713,
      "అయ్": 4714,
      "అధ్య": 4715,
      "అంటుంది": 4716,
      "అహం": 4717,
      "అరవి": 4718,
      "అంటె": 4719,
      "అనాలి": 4720,
      "అధ్": 4721,
      "అదొక": 4722,
      "ఆరు": 4723,
      "ఆకా": 4724,
      "ఆడి": 4725,
      "ఆయు": 4726,
      "ఆకర్": 4727,
      "ఆపండి": 4728,
      "ఆస్తులు": 4729,
      "ఆడియన్స్": 4730,
      "ఆరోగ్య": 4731,
      "ఇల": 4732,
      "ఇప్పు": 4733,
      "ఇమే": 4734,
      "ఇస్తుంది": 4735,
      "ఇదీ": 4736,
      "ఇట్టే": 4737,
      "ఇకన": 4738,
      "ఇజం": 4739,
      "ఇవాళ": 4740,
      "ఈపాట": 4741,
      "ఈజ్": 4742,
      "ఉయ్యా": 4743,
      "ఉంటున్నాయి": 4744,
      "ఎడి": 4745,
      "ఎనిమి": 4746,
      "ఏలా": 4747,
      "ఏమని": 4748,
      "ఏకంగా": 4749,
      "ఐక్": 4750,
      "ఒరి": 4751,
      "ఒంటి": 4752,
      "ఓహ్": 4753,
      "ఓహో": 4754,
      "ఓల్డ్": 4755,
      "కధ": 4756,
      "కప్ప": 4757,
      "కబు": 4758,
      "కలె": 4759,
      "కరీ": 4760,
      "కదరా": 4761,
      "కవర్గం": 4762,
      "ఖలే": 4763,
      "గతి": 4764,
      "గదా": 4765,
      "ఘడియ": 4766,
      "చద": 4767,
      "చొ": 4768,
      "ఛి": 4769,
      "జవ": 4770,
      "జవా": 4771,
      "టట్టు": 4772,
      "ఠి": 4773,
      "డని": 4774,
      "డప్": 4775,
      "డైన": 4776,
      "డంతో": 4777,
      "డబల్": 4778,
      "ఢీ": 4779,
      "తంద": 4780,
      "తగి": 4781,
      "తగిలి": 4782,
      "దమ్": 4783,
      "దంగా": 4784,
      "ద్రా": 4785,
      "దైనా": 4786,
      "దండ్": 4787,
      "నక": 4788,
      "నలి": 4789,
      "నల్ల": 4790,
      "నైనా": 4791,
      "నరికి": 4792,
      "నష్టం": 4793,
      "నములు": 4794,
      "నగర్": 4795,
      "పౌ": 4796,
      "పరా": 4797,
      "పసి": 4798,
      "పప్ప": 4799,
      "పట్టా": 4800,
      "పరులు": 4801,
      "పగిలి": 4802,
      "పంతులు": 4803,
      "పసుపు": 4804,
      "బం": 4805,
      "బలు": 4806,
      "బరి": 4807,
      "బలే": 4808,
      "బలం": 4809,
      "బడవ": 4810,
      "బంధా": 4811,
      "మల్": 4812,
      "మతో": 4813,
      "మ్రా": 4814,
      "మల్ని": 4815,
      "మత్తు": 4816,
      "యము": 4817,
      "రన్": 4818,
      "రవా": 4819,
      "రమ్": 4820,
      "రక్ష": 4821,
      "రంటీ": 4822,
      "రక్షణ": 4823,
      "ఱ్": 4824,
      "లకా": 4825,
      "లలి": 4826,
      "లవర్": 4827,
      "వలు": 4828,
      "వసు": 4829,
      "వస్తున్న": 4830,
      "వక్రీ": 4831,
      "వదులు": 4832,
      "వదల": 4833,
      "శరం": 4834,
      "శంలో": 4835,
      "షనల్": 4836,
      "సచి": 4837,
      "సంగా": 4838,
      "సన్నీ": 4839,
      "సదాం": 4840,
      "హౌ": 4841,
      "హరా": 4842,
      "ృప్తి": 4843,
      "ెంట్": 4844,
      "నింది": 4845,
      "నిల్": 4846,
      "నిస్తాన్": 4847,
      "స్పె": 4848,
      "స్పార్": 4849,
      "ర్రా": 4850,
      "ర్లింగ్": 4851,
      "ంద్": 4852,
      "ందర్": 4853,
      "ందయ్యా": 4854,
      "ందరికి": 4855,
      "ంద్రు": 4856,
      "కుం": 4857,
      "కుజ": 4858,
      "కుంట": 4859,
      "కుళ్ళు": 4860,
      "కుతంత": 4861,
      "కుమ్మే": 4862,
      "కున్నుల్లో": 4863,
      "నాట్": 4864,
      "నామీ": 4865,
      "నావే": 4866,
      "నాలను": 4867,
      "నాథ్": 4868,
      "గాళ్ళ": 4869,
      "గాళ్ళు": 4870,
      "గార్ని": 4871,
      "గాలోడు": 4872,
      "ట్నా": 4873,
      "రాగ": 4874,
      "రామే": 4875,
      "రాదీ": 4876,
      "రాశారు": 4877,
      "రాలతో": 4878,
      "రాలలో": 4879,
      "రాత్రు": 4880,
      "మాండ్": 4881,
      "మానె": 4882,
      "మాక్స్": 4883,
      "మారారు": 4884,
      "క్లో": 4885,
      "రిని": 4886,
      "రిలీస్": 4887,
      "వాది": 4888,
      "వాతే": 4889,
      "కాను": 4890,
      "కాపు": 4891,
      "కావ్య": 4892,
      "కాదని": 4893,
      "డిమాండ్": 4894,
      "లోయింగ్": 4895,
      "లాడు": 4896,
      "ల్ట్": 4897,
      "స్త్ర": 4898,
      "చినా": 4899,
      "చింది": 4900,
      "చివరికి": 4901,
      "సింధ": 4902,
      "సిస్టర్": 4903,
      "లేం": 4904,
      "లేదీ": 4905,
      "చేర": 4906,
      "చేది": 4907,
      "గుండు": 4908,
      "లికా": 4909,
      "లిస్తారు": 4910,
      "విక": 4911,
      "విధి": 4912,
      "విజిల్": 4913,
      "వురా": 4914,
      "దికి": 4915,
      "దిష్టి": 4916,
      "దిగిన": 4917,
      "దురు": 4918,
      "బాట": 4919,
      "బాదు": 4920,
      "బాయ్": 4921,
      "బాబూ": 4922,
      "మీర్": 4923,
      "మీదే": 4924,
      "డార్లింగ్": 4925,
      "పాడా": 4926,
      "పాయి": 4927,
      "పాపు": 4928,
      "పాలె": 4929,
      "పాస్టర్": 4930,
      "సాహ": 4931,
      "సాను": 4932,
      "సారో": 4933,
      "సారం": 4934,
      "సాక్ష": 4935,
      "సారీ": 4936,
      "సామ్రా": 4937,
      "ప్రీ": 4938,
      "ప్రకా": 4939,
      "ప్రవర్తి": 4940,
      "నీది": 4941,
      "నీచు": 4942,
      "నీతులు": 4943,
      "కోవ": 4944,
      "కోల్": 4945,
      "కోలేదు": 4946,
      "కోలేక": 4947,
      "కోసమ": 4948,
      "కోరిక": 4949,
      "యిన": 4950,
      "తురు": 4951,
      "తుందని": 4952,
      "నేర": 4953,
      "నేషన్": 4954,
      "ముని": 4955,
      "ముద్ద": 4956,
      "ముచ్చ": 4957,
      "ముద్ది": 4958,
      "ముత్యం": 4959,
      "చెపి": 4960,
      "చెక్క": 4961,
      "చెయ్": 4962,
      "చెందిన": 4963,
      "సుద్దా": 4964,
      "సురేష్": 4965,
      "సుజాత": 4966,
      "సుప్రీ": 4967,
      "తిర": 4968,
      "తిడు": 4969,
      "తిండి": 4970,
      "తింటూ": 4971,
      "పోరి": 4972,
      "పోకే": 4973,
      "పోతోంది": 4974,
      "పోసాని": 4975,
      "పోర్న్": 4976,
      "కొచ్చి": 4977,
      "కొండా": 4978,
      "కొట్లా": 4979,
      "కొంటున్నా": 4980,
      "కొడాలి": 4981,
      "దాస్త్": 4982,
      "మిమి": 4983,
      "మిత్ర": 4984,
      "మిమ్మ": 4985,
      "మినల్": 4986,
      "పిల": 4987,
      "పిరి": 4988,
      "పిడీ": 4989,
      "చూద్దాం": 4990,
      "చూసుకొని": 4991,
      "పెంచి": 4992,
      "త్తే": 4993,
      "డ్జి": 4994,
      "క్కీ": 4995,
      "స్తుల": 4996,
      "పుత్ర": 4997,
      "పుట్టే": 4998,
      "పుష్య": 4999,
      "వేసుకు": 5000,
      "్యాన్ని": 5001,
      "తార్": 5002,
      "తాది": 5003,
      "తానే": 5004,
      "తాము": 5005,
      "తాన్ని": 5006,
      "తాకట్టు": 5007,
      "సినిమాకు": 5008,
      "సినిమాల్లో": 5009,
      "తెచ్చా": 5010,
      "బుధ": 5011,
      "బుద్ధ": 5012,
      "వీరి": 5013,
      "పర్స": 5014,
      "రోగం": 5015,
      "ంచం": 5016,
      "ంచగలరు": 5017,
      "ంచకూడదు": 5018,
      "ంచటానికి": 5019,
      "న్నింగ్": 5020,
      "మెడ": 5021,
      "ండం": 5022,
      "ండంటే": 5023,
      "ంగానే": 5024,
      "కేం": 5025,
      "కేసీ": 5026,
      "తోనే": 5027,
      "రేట్లు": 5028,
      "మేల్": 5029,
      "మనము": 5030,
      "మనండి": 5031,
      "మనసే": 5032,
      "రంలో": 5033,
      "రంగు": 5034,
      "రంగంలో": 5035,
      "పాటా": 5036,
      "తీరే": 5037,
      "తీస్తారు": 5038,
      "తీర్చు": 5039,
      "తీసాడు": 5040,
      "బ్లీ": 5041,
      "బ్లోయింగ్": 5042,
      "రామకోటి": 5043,
      "ఒకడు": 5044,
      "చెప్పడానికి": 5045,
      "బాగున్నా": 5046,
      "జుట్టు": 5047,
      "వర్గాల": 5048,
      "జ్మెంట్": 5049,
      "లీం": 5050,
      "లీలా": 5051,
      "్రాది": 5052,
      "శారీ": 5053,
      "ఎవడో": 5054,
      "ఎవడైనా": 5055,
      "చుసిన": 5056,
      "చుట్టూ": 5057,
      "జైలు": 5058,
      "మూల": 5059,
      "మంచిని": 5060,
      "అందకుండా": 5061,
      "యంలో": 5062,
      "ంచారా": 5063,
      "యుగ": 5064,
      "ద్దని": 5065,
      "పేట": 5066,
      "పేమెంట్": 5067,
      "చేయకు": 5068,
      "చేయమని": 5069,
      "చేయగలరు": 5070,
      "మొత్తా": 5071,
      "సీట్లు": 5072,
      "మందిని": 5073,
      "హారి": 5074,
      "హార్ట్": 5075,
      "ఎందుక": 5076,
      "తండ్": 5077,
      "పీక": 5078,
      "పీకే": 5079,
      "ంట్స్": 5080,
      "డేట్": 5081,
      "గురుంచి": 5082,
      "వైకాపా": 5083,
      "వైభవం": 5084,
      "ఒక్కరికి": 5085,
      "యోగ": 5086,
      "గ్రౌ": 5087,
      "కోరుకునే": 5088,
      "గొడ్డు": 5089,
      "పూన": 5090,
      "పూర": 5091,
      "బ్రతికి": 5092,
      "రోజులో": 5093,
      "పంపు": 5094,
      "తెలియా": 5095,
      "తెలివైన": 5096,
      "ంచుమా": 5097,
      "ఉండకూడదు": 5098,
      "చూడరు": 5099,
      "య్యారు": 5100,
      "య్యాడు": 5101,
      "య్యాయి": 5102,
      "బినేషన్": 5103,
      "స్తున్నారా": 5104,
      "శ్మీర్": 5105,
      "మార్ట్": 5106,
      "మార్చు": 5107,
      "రాజ్య": 5108,
      "రాజమౌ": 5109,
      "రాజశేఖ": 5110,
      "కెనే": 5111,
      "కెందుకు": 5112,
      "గురువుగారికి": 5113,
      "సెల్": 5114,
      "నెంబ": 5115,
      "వరకూ": 5116,
      "పొగి": 5117,
      "పొట్టి": 5118,
      "పొందిన": 5119,
      "పొగరు": 5120,
      "పొలిటి": 5121,
      "బోరింగ్": 5122,
      "ఉన్నారా": 5123,
      "పరిగె": 5124,
      "పరిస్థి": 5125,
      "పరిజ్ఞానం": 5126,
      "ఆర్థి": 5127,
      "తనను": 5128,
      "దొరి": 5129,
      "దొరుకు": 5130,
      "అవుతున్నా": 5131,
      "అవుతాడు": 5132,
      "ఉంటేనే": 5133,
      "దోషం": 5134,
      "దోపిడీ": 5135,
      "వాళ్లే": 5136,
      "వాళ్లను": 5137,
      "పెద్దమ్మ": 5138,
      "వంకర": 5139,
      "పైత్యం": 5140,
      "సమర్థ": 5141,
      "గెల": 5142,
      "గెట్": 5143,
      "తప్పే": 5144,
      "ద్దులు": 5145,
      "సోద": 5146,
      "హీరోలు": 5147,
      "పవన్కళ్యాణ్": 5148,
      "చూపించు": 5149,
      "చూపించాలి": 5150,
      "దేవుడికి": 5151,
      "ప్రామాణి": 5152,
      "పెట్టింది": 5153,
      "ద్రం": 5154,
      "బొంద": 5155,
      "విషయ": 5156,
      "టాప్": 5157,
      "టాలీవుడ్": 5158,
      "ంధీ": 5159,
      "ఫ్లాప్": 5160,
      "పిల్లలకు": 5161,
      "పడిచ": 5162,
      "నోట్లో": 5163,
      "నూనె": 5164,
      "చేసేవాళ్ళు": 5165,
      "ఉండాలని": 5166,
      "బ్బే": 5167,
      "మనుస్మృతి": 5168,
      "ట్టాడు": 5169,
      "నవ్వుతుంది": 5170,
      "నవ్వుకున్నా": 5171,
      "సైడ్": 5172,
      "క్రిష్": 5173,
      "క్రిమినల్": 5174,
      "అభిమానం": 5175,
      "మనసులో": 5176,
      "భూములు": 5177,
      "తప్పుగా": 5178,
      "పట్టించుకోరు": 5179,
      "వినడానికి": 5180,
      "వినసొ": 5181,
      "వలసింది": 5182,
      "వందల": 5183,
      "ఉంటావు": 5184,
      "సరిగ్గా": 5185,
      "జ్ఞాప": 5186,
      "జ్ఞాని": 5187,
      "ఫామెన్స్": 5188,
      "మహారాజ్": 5189,
      "చెప్తే": 5190,
      "ఇదేమి": 5191,
      "జడ్జెస్": 5192,
      "ఫిట్": 5193,
      "ఫిగర్": 5194,
      "వచ్చాక": 5195,
      "మరలా": 5196,
      "మరణం": 5197,
      "సొంతం": 5198,
      "తూనే": 5199,
      "మనస్సు": 5200,
      "మనస్పర్": 5201,
      "నిర్మా": 5202,
      "నిర్భయ": 5203,
      "చెప్పుకో": 5204,
      "చెప్పుతో": 5205,
      "ప్రభుత్వాల": 5206,
      "కరమైన": 5207,
      "చేస్తారా": 5208,
      "దానిని": 5209,
      "బ్రోకర్": 5210,
      "ఇప్పటికి": 5211,
      "స్వతంత్ర": 5212,
      "వ్యూస్": 5213,
      "అంటాడు": 5214,
      "నమ్మరు": 5215,
      "తీసేసి": 5216,
      "చెప్పినట్టు": 5217,
      "మానవ": 5218,
      "కూతురి": 5219,
      "దమ్మున్న": 5220,
      "తెలుసుకొని": 5221,
      "ంగిల్": 5222,
      "జనాల": 5223,
      "గుండెలు": 5224,
      "కనిపిస్తారు": 5225,
      "కరెక్టు": 5226,
      "ంచుకోవాలి": 5227,
      "నైతే": 5228,
      "బంగారు": 5229,
      "రాయడం": 5230,
      "పోయేది": 5231,
      "నిజాన్ని": 5232,
      "నిజానికి": 5233,
      "సమస్యకు": 5234,
      "రైతులకు": 5235,
      "గర్వ": 5236,
      "పనికిరాని": 5237,
      "రొట్ట": 5238,
      "దేశాల్లో": 5239,
      "ఆలోచించి": 5240,
      "కుంటున్నాను": 5241,
      "దరిద్రపు": 5242,
      "చక్కటి": 5243,
      "టెన్": 5244,
      "దెబ్బకు": 5245,
      "చందమామ": 5246,
      "తల్లిదండ్": 5247,
      "లొస్తాయి": 5248,
      "హిందువులకు": 5249,
      "విధానాలు": 5250,
      "నమస్కారాలు": 5251,
      "నవ్వే": 5252,
      "ఫేమస్": 5253,
      "అడిగిన": 5254,
      "అడిగితే": 5255,
      "తగ్గే": 5256,
      "త్యాలు": 5257,
      "సింహం": 5258,
      "పోతాది": 5259,
      "పోతాయి": 5260,
      "బయటకు": 5261,
      "బయటకి": 5262,
      "అందించాలని": 5263,
      "సహస్": 5264,
      "మాట్లాడటం": 5265,
      "తంత్": 5266,
      "పండిత": 5267,
      "బాగుండటం": 5268,
      "గుర్తుకొ": 5269,
      "ఎప్పటికైనా": 5270,
      "విద్యలు": 5271,
      "వైద్యం": 5272,
      "మతము": 5273,
      "మారరు": 5274,
      "మారండి": 5275,
      "నేర్చుకుంటారు": 5276,
      "ముఖ్యంగా": 5277,
      "రావటం": 5278,
      "రావణుడు": 5279,
      "లింక్": 5280,
      "చూస్తున్నాము": 5281,
      "అభిమానిని": 5282,
      "సంవత్సరాలు": 5283,
      "సనాతనధర్మం": 5284,
      "కులానికి": 5285,
      "బిల్డప్": 5286,
      "పచ్చడి": 5287,
      "వరుస": 5288,
      "వరుణ్": 5289,
      "యాదవ్": 5290,
      "స్టేట్": 5291,
      "స్టేజ్": 5292,
      "తెలుసుకోవాలి": 5293,
      "అదిరిపోయింది": 5294,
      "దొరకడం": 5295,
      "దొరకలేదా": 5296,
      "చూడాలనిపిస్తుంది": 5297,
      "వదిలేసి": 5298,
      "వదిలేయండి": 5299,
      "దశమి": 5300,
      "మహర్": 5301,
      "బోర్డు": 5302,
      "మ్యాజిక్": 5303,
      "కుష్బూ": 5304,
      "పెడతారు": 5305,
      "కంపెనీలు": 5306,
      "కల్పిత": 5307,
      "ఆపలేరు": 5308,
      "డ్రై": 5309,
      "డ్రస్": 5310,
      "డ్రగ్స్": 5311,
      "ఫెలో": 5312,
      "పూజలు": 5313,
      "మొదటిసారి": 5314,
      "అరెస్ట్": 5315,
      "కౌంటర్": 5316,
      "బంధం": 5317,
      "వంతంగా": 5318,
      "ప్రవచనలు": 5319,
      "రాష్ట్రాల్లో": 5320,
      "జూనియర్": 5321,
      "రాహుల్": 5322,
      "మాంసం": 5323,
      "సాయిబాబా": 5324,
      "తిరుగుడు": 5325,
      "పెరిగింది": 5326,
      "ప్రేమిస్తున్నా": 5327,
      "ఎక్స్ప్రె": 5328,
      "పడ్డాడు": 5329,
      "మహిళ": 5330,
      "నిమిషాలు": 5331,
      "మానేసి": 5332,
      "లంజకొడుకులు": 5333,
      "ప్రేక్షకులు": 5334,
      "చంపేశారు": 5335,
      "ముసలోడి": 5336,
      "ఇస్తారా": 5337,
      "కరించిన": 5338,
      "గతంలో": 5339,
      "విష్ణువు": 5340,
      "బాగోదు": 5341,
      "తాగుబోతు": 5342,
      "దొరికితే": 5343,
      "హ్యాపీగా": 5344,
      "భవిష్యత్": 5345,
      "గ్యాస్": 5346,
      "జంతువులు": 5347,
      "బతుకులు": 5348,
      "వస్తె": 5349,
      "జానపదం": 5350,
      "వ్యతిరేక": 5351,
      "ఆపేది": 5352,
      "నమ్మిన": 5353,
      "ప్రశ్నించ": 5354,
      "వెన్నెలమ్మ": 5355,
      "అచ్చం": 5356,
      "ఇతని": 5357,
      "గంటలు": 5358,
      "పథకాలు": 5359,
      "కూర్చుని": 5360,
      "థాంక్యూ": 5361,
      "అప్పట్లో": 5362,
      "హెల్": 5363,
      "బానిసలు": 5364,
      "డాక్టర్స్": 5365,
      "ముక్కలు": 5366,
      "కేతువు": 5367,
      "వినాలనిపిస్తుంది": 5368,
      "నడిచే": 5369,
      "నువ్వొ": 5370,
      "రెండో": 5371,
      "అనుకున్నాను": 5372,
      "ట్రెండ్": 5373,
      "హృదయపూర్వక": 5374,
      "భవిష్యత్తులో": 5375,
      "మాధవి": 5376,
      "విపరీత": 5377,
      "బిర్యానీ": 5378,
      "అర్థమవుతుంది": 5379,
      "సాంప్రదాయ": 5380,
      "మహానుభావులు": 5381,
      "అచ్ఛం": 5382,
      "కమిటీ": 5383,
      "తగలె": 5384,
      "సంతృప్తి": 5385,
      "ప్రణయ్": 5386,
      "మురిసి": 5387,
      "ష్టుడు": 5388,
      "గ్రంథాల": 5389,
      "క్రైస్తవ": 5390,
      "అమిత్": 5391,
      "ఎనర్జీ": 5392,
      "నమాజ్": 5393,
      "రకాలుగా": 5394,
      "శరీరం": 5395,
      "స్వేచ్ఛ": 5396,
      "కొవ్వెక్కి": 5397,
      "అన్నపూర్ణమ్మ": 5398,
      "క్రిస్టియన్": 5399,
      "భాగవతం": 5400,
      "వాలంటీర్లు": 5401,
      "అగ్ని": 5402,
      "టార్గెట్": 5403,
      "తమిళ": 5404,
      "నియోజ": 5405,
      "స్వచ్ఛ": 5406,
      "స్మైల్": 5407,
      "చెన్నై": 5408,
      "సునీత": 5409,
      "పోరంబోకు": 5410,
      "పోలవరం": 5411,
      "మెదడు": 5412,
      "మానవత్వం": 5413,
      "జబ్బర్దాస్త్": 5414,
      "ఇకనైనా": 5415,
      "జవహర్": 5416,
      "ఱ్ఱ": 5417,
      "సచివాల": 5418,
      "స్పార్క్": 5419,
      "రాత్రులొస్తాయి": 5420,
      "సామ్రాజ": 5421,
      "ముద్దిలిస్తారు": 5422,
      "కేసీఆర్": 5423,
      "రాజమౌళి": 5424,
      "నెంబరు": 5425,
      "పొలిటికల్": 5426,
      "అట": 5427,
      "అన్": 5428,
      "అవ్వు": 5429,
      "అయో": 5430,
      "అగ్ర": 5431,
      "అంధ": 5432,
      "అణు": 5433,
      "అప్పా": 5434,
      "అమ్మే": 5435,
      "అన్యాయం": 5436,
      "అదర": 5437,
      "అమావా": 5438,
      "అంగీ": 5439,
      "ఆడా": 5440,
      "ఆయా": 5441,
      "ఆదా": 5442,
      "ఆత్": 5443,
      "ఆగి": 5444,
      "ఆధి": 5445,
      "ఆణి": 5446,
      "ఆదరి": 5447,
      "ఆదర్శ": 5448,
      "ఆధ్యా": 5449,
      "ఆనాటి": 5450,
      "ఆనందిని": 5451,
      "ఇసు": 5452,
      "ఇవే": 5453,
      "ఇట్లా": 5454,
      "ఇల్లా": 5455,
      "ఇయర్": 5456,
      "ఇపుడే": 5457,
      "ఈమె": 5458,
      "ఈటీ": 5459,
      "ఉట్ట": 5460,
      "ఉంచు": 5461,
      "ఉద్ధ": 5462,
      "ఉంచుకో": 5463,
      "ఉందని": 5464,
      "ఊడ": 5465,
      "ఊగు": 5466,
      "ఊర్లో": 5467,
      "ఎగ": 5468,
      "ఎత్తి": 5469,
      "ఎరుపు": 5470,
      "ఎరుగ": 5471,
      "ఎత్తుకు": 5472,
      "ఏల": 5473,
      "ఏకా": 5474,
      "ఏర్రి": 5475,
      "ఏమైంది": 5476,
      "ఒప్ప": 5477,
      "ఒళ్ళు": 5478,
      "ఓఓ": 5479,
      "ఓటర్": 5480,
      "ఓపెన్": 5481,
      "కగా": 5482,
      "కధా": 5483,
      "క్రె": 5484,
      "కమ్యూ": 5485,
      "కపోవడం": 5486,
      "కదీపం": 5487,
      "గడం": 5488,
      "గమ్మ": 5489,
      "ఘం": 5490,
      "చౌ": 5491,
      "చలా": 5492,
      "చట్టా": 5493,
      "చచ్చా": 5494,
      "జంగిడి": 5495,
      "ఝా": 5496,
      "టన్": 5497,
      "టప్పుడు": 5498,
      "టంలో": 5499,
      "ఠం": 5500,
      "ఠా": 5501,
      "డక": 5502,
      "డగ": 5503,
      "డట": 5504,
      "డన్న": 5505,
      "డంత": 5506,
      "డంటే": 5507,
      "డండి": 5508,
      "డప్పు": 5509,
      "డబుల్": 5510,
      "ఢా": 5511,
      "తస్": 5512,
      "తన్ను": 5513,
      "తగ్గు": 5514,
      "తరానికి": 5515,
      "దస": 5516,
      "దలు": 5517,
      "దనం": 5518,
      "దైన": 5519,
      "ధనా": 5520,
      "ధవా": 5521,
      "ధమ్": 5522,
      "ధనం": 5523,
      "నట": 5524,
      "నవ": 5525,
      "నశి": 5526,
      "నగాడు": 5527,
      "పమ": 5528,
      "పృ": 5529,
      "పలు": 5530,
      "పగా": 5531,
      "పనీ": 5532,
      "పడ్డ": 5533,
      "పల్లే": 5534,
      "పగలరు": 5535,
      "పగలు": 5536,
      "పరాశర": 5537,
      "ఫలం": 5538,
      "బస్": 5539,
      "బడ్": 5540,
      "బడే": 5541,
      "బతికి": 5542,
      "బతక": 5543,
      "బజారు": 5544,
      "భవ": 5545,
      "భై": 5546,
      "భరి": 5547,
      "భంలో": 5548,
      "భల్లే": 5549,
      "మన్నా": 5550,
      "మనీ": 5551,
      "మంగా": 5552,
      "మయం": 5553,
      "మద్ద": 5554,
      "మంటా": 5555,
      "మస్త్": 5556,
      "మంచు": 5557,
      "మగాడు": 5558,
      "మమ్మల్ని": 5559,
      "యొ": 5560,
      "యకు": 5561,
      "యయా": 5562,
      "యతీ": 5563,
      "యవ్వ": 5564,
      "యజ్ఞ": 5565,
      "యశో": 5566,
      "రఘ": 5567,
      "రజ": 5568,
      "రము": 5569,
      "రలేదు": 5570,
      "రమైన": 5571,
      "రణం": 5572,
      "లత": 5573,
      "లగా": 5574,
      "లది": 5575,
      "లనే": 5576,
      "లక్షలు": 5577,
      "లందరి": 5578,
      "ళన": 5579,
      "ళు": 5580,
      "వక": 5581,
      "వదు": 5582,
      "వస్తున్నా": 5583,
      "వశి": 5584,
      "వస్తున్నారు": 5585,
      "వళ్ళు": 5586,
      "వక్రి": 5587,
      "వశీ": 5588,
      "వస్తున్నాడు": 5589,
      "వస్తున్నాయి": 5590,
      "వరెట్": 5591,
      "శవాల": 5592,
      "శత్రు": 5593,
      "ష్యా": 5594,
      "సభ": 5595,
      "సన్న": 5596,
      "సమీ": 5597,
      "సద్": 5598,
      "సన్ని": 5599,
      "సద్ద": 5600,
      "హూ": 5601,
      "హను": 5602,
      "ీప్": 5603,
      "ూం": 5604,
      "ెనే": 5605,
      "న్సు": 5606,
      "నిమ": 5607,
      "నియ": 5608,
      "నికీ": 5609,
      "నిషే": 5610,
      "నిఫె": 5611,
      "నిబంధ": 5612,
      "నిరాశ": 5613,
      "నియంత్ర": 5614,
      "స్ప": 5615,
      "స్పా": 5616,
      "స్కీ": 5617,
      "స్యం": 5618,
      "స్పూ": 5619,
      "స్కోండి": 5620,
      "ర్నీ": 5621,
      "ర్యుడు": 5622,
      "ందరో": 5623,
      "ంద్రీ": 5624,
      "కువ": 5625,
      "కుల్": 5626,
      "కుసు": 5627,
      "నాను": 5628,
      "నాచిరా": 5629,
      "నాగలి": 5630,
      "నాతల్లీ": 5631,
      "గాను": 5632,
      "రాదే": 5633,
      "రాసే": 5634,
      "రాకుండా": 5635,
      "రాసుకో": 5636,
      "రాసుకు": 5637,
      "రాణి": 5638,
      "రాచరి": 5639,
      "రాగానే": 5640,
      "రాకపోతే": 5641,
      "రాబోయే": 5642,
      "మాలి": 5643,
      "మారే": 5644,
      "ంటప్పుడు": 5645,
      "క్వాలి": 5646,
      "క్లై": 5647,
      "క్టరీ": 5648,
      "క్లబ్": 5649,
      "వాయ": 5650,
      "వావ్": 5651,
      "వాలేదు": 5652,
      "వాయు": 5653,
      "వాల్లు": 5654,
      "వాగిన": 5655,
      "వాగుడు": 5656,
      "వాణ్ణి": 5657,
      "కితం": 5658,
      "కాడ": 5659,
      "కాంత": 5660,
      "కాసు": 5661,
      "కావ్": 5662,
      "కామే": 5663,
      "కాలను": 5664,
      "కాఫీ": 5665,
      "కావచ్చు": 5666,
      "కాయై": 5667,
      "నుడు": 5668,
      "నులకు": 5669,
      "లోచి": 5670,
      "లోతు": 5671,
      "లోపల": 5672,
      "లాస": 5673,
      "లాంగ్": 5674,
      "స్తం": 5675,
      "చిన్నా": 5676,
      "చిలకా": 5677,
      "సిక్": 5678,
      "సిబ్బ": 5679,
      "సిన్మా": 5680,
      "సింపుల్": 5681,
      "ప్టు": 5682,
      "ప్మెంట్": 5683,
      "న్నర": 5684,
      "లేట్": 5685,
      "లేరా": 5686,
      "లేకున్నా": 5687,
      "లేనట్టు": 5688,
      "చేప": 5689,
      "చేదు": 5690,
      "చేపి": 5691,
      "చేసుకొ": 5692,
      "గుండా": 5693,
      "గుడ్డి": 5694,
      "గుండే": 5695,
      "గుణంగా": 5696,
      "గుప్త": 5697,
      "గుప్పె": 5698,
      "లికి": 5699,
      "లింగిడి": 5700,
      "విత": 5701,
      "వింద": 5702,
      "విరి": 5703,
      "విలో": 5704,
      "విసి": 5705,
      "విచా": 5706,
      "విత్": 5707,
      "విక్ర": 5708,
      "వింటున్నా": 5709,
      "విశే": 5710,
      "వినాశ": 5711,
      "విగ్రహా": 5712,
      "విన్నింగ్": 5713,
      "వుని": 5714,
      "వురో": 5715,
      "వుండాలి": 5716,
      "ప్పర్": 5717,
      "ప్పలు": 5718,
      "దిం": 5719,
      "దుః": 5720,
      "దున్న": 5721,
      "దుంప": 5722,
      "బాయి": 5723,
      "బానే": 5724,
      "బాపు": 5725,
      "బాత్ర": 5726,
      "బాస్టర్": 5727,
      "బాహు": 5728,
      "బావుంది": 5729,
      "బావుంటుంది": 5730,
      "మీనా": 5731,
      "మీకి": 5732,
      "మీతో": 5733,
      "మీరె": 5734,
      "డామినే": 5735,
      "పాయ": 5736,
      "పాస్": 5737,
      "పాండ": 5738,
      "పారే": 5739,
      "పారాయ": 5740,
      "సాగ": 5741,
      "సాధా": 5742,
      "ళ్లే": 5743,
      "చాణ": 5744,
      "చారం": 5745,
      "చావని": 5746,
      "చార్యు": 5747,
      "ప్రక్క": 5748,
      "ప్రమో": 5749,
      "నీయ": 5750,
      "నీలో": 5751,
      "నీదే": 5752,
      "నీలం": 5753,
      "నీలాంటి": 5754,
      "కోన": 5755,
      "కోసే": 5756,
      "కోవద్దు": 5757,
      "యింది": 5758,
      "యిజం": 5759,
      "తునా": 5760,
      "తుగ్లక్": 5761,
      "నేనైతే": 5762,
      "మున": 5763,
      "ముక్": 5764,
      "ముండ": 5765,
      "ముద్ర": 5766,
      "చెడి": 5767,
      "చెస్తే": 5768,
      "చెట్లు": 5769,
      "సుర": 5770,
      "సుగు": 5771,
      "సుకుంటున్నారు": 5772,
      "సుఖం": 5773,
      "సుప్పర్": 5774,
      "తిన్న": 5775,
      "తింటున్నా": 5776,
      "తింటున్నారు": 5777,
      "తింటున్న": 5778,
      "తిరిగే": 5779,
      "పోత": 5780,
      "పోలి": 5781,
      "పోదు": 5782,
      "పోవే": 5783,
      "పోతుంటే": 5784,
      "కొక": 5785,
      "కొన్న": 5786,
      "కొండి": 5787,
      "యాది": 5788,
      "యాల్లో": 5789,
      "దాదా": 5790,
      "మిథ": 5791,
      "మిలా": 5792,
      "మింగిన": 5793,
      "పిక్": 5794,
      "పించిన": 5795,
      "పెద్దా": 5796,
      "పెంచాడు": 5797,
      "త్రులు": 5798,
      "త్మిక": 5799,
      "టికె": 5800,
      "టిఫుల్": 5801,
      "పుల": 5802,
      "పుట్టు": 5803,
      "వేద": 5804,
      "వేయి": 5805,
      "వేజ్": 5806,
      "వేస్తుంది": 5807,
      "దేని": 5808,
      "దేము": 5809,
      "తాన": 5810,
      "తాని": 5811,
      "తాకి": 5812,
      "తాగే": 5813,
      "తెల్": 5814,
      "తెప్పి": 5815,
      "అన్నయ": 5816,
      "అన్నను": 5817,
      "అన్నప్పుడు": 5818,
      "సూచ": 5819,
      "బుల్లి": 5820,
      "బుధు": 5821,
      "బుజ్జి": 5822,
      "బుడగ": 5823,
      "వీరికి": 5824,
      "వీళ్లు": 5825,
      "వీడో": 5826,
      "పర్వ": 5827,
      "పర్ఫామెన్స్": 5828,
      "రోజూ": 5829,
      "ంచన": 5830,
      "ంచవే": 5831,
      "న్నింటి": 5832,
      "మెడి": 5833,
      "మెల్ల": 5834,
      "మెచ్చు": 5835,
      "ండర్": 5836,
      "తేజ్": 5837,
      "కేషన్": 5838,
      "రేవంత": 5839,
      "మేం": 5840,
      "మేరీ": 5841,
      "మేనిఫె": 5842,
      "మనవి": 5843,
      "మనసుకు": 5844,
      "గిందీ": 5845,
      "గిఫ్ట్": 5846,
      "వెద": 5847,
      "వెట్టు": 5848,
      "ంటిమెంట్": 5849,
      "జయం": 5850,
      "పాటని": 5851,
      "రెస్ట్": 5852,
      "తీస్తా": 5853,
      "తీస్తాడు": 5854,
      "తీస్తున్నాడు": 5855,
      "తీవ్ర": 5856,
      "బ్ల": 5857,
      "బ్లూ": 5858,
      "బ్లెస్": 5859,
      "జాం": 5860,
      "జార్": 5861,
      "జాలు": 5862,
      "జానీ": 5863,
      "ఒకవేళ": 5864,
      "చెప్పొచ్చు": 5865,
      "చెప్పగలరా": 5866,
      "స్టీ": 5867,
      "టీచర్": 5868,
      "బాగుపడాలి": 5869,
      "సేవ": 5870,
      "సేమ్": 5871,
      "వర్ణ": 5872,
      "వర్క్": 5873,
      "డీజిల్": 5874,
      "జీగా": 5875,
      "జీవన్": 5876,
      "భావా": 5877,
      "భాష్": 5878,
      "భారం": 5879,
      "భాగం": 5880,
      "భావాలు": 5881,
      "క్షమి": 5882,
      "శ్రీశై": 5883,
      "ండాలంగా": 5884,
      "నంకా": 5885,
      "నంబర్": 5886,
      "చుకునే": 5887,
      "చురల్": 5888,
      "జైల్": 5889,
      "జైహింద్": 5890,
      "మూడ్": 5891,
      "మూసే": 5892,
      "మూసుకో": 5893,
      "మూసుకొని": 5894,
      "మూసుకుని": 5895,
      "ఇంకొంచెం": 5896,
      "కీర్తి": 5897,
      "అందరం": 5898,
      "అందర్నీ": 5899,
      "తెలుసుకోండి": 5900,
      "తెలుస్తోంది": 5901,
      "యుద్ధా": 5902,
      "పేదరి": 5903,
      "చేయరు": 5904,
      "చేయగల": 5905,
      "మొగు": 5906,
      "మొఖం": 5907,
      "హాయి": 5908,
      "హాసన్": 5909,
      "అయిపోద్ది": 5910,
      "ధియేటర్": 5911,
      "ంటారో": 5912,
      "నువ్వులు": 5913,
      "కుంటుల్లో": 5914,
      "పీకు": 5915,
      "పీకి": 5916,
      "పీలి": 5917,
      "ధార": 5918,
      "వైద్యా": 5919,
      "వైయస్": 5920,
      "కోరుతూ": 5921,
      "కోరుకుందాం": 5922,
      "అనుసరి": 5923,
      "అనుకునే": 5924,
      "అనుకుంటున్న": 5925,
      "అనుపమ": 5926,
      "గొడు": 5927,
      "గొఱ్ఱ": 5928,
      "పూల": 5929,
      "పూజా": 5930,
      "పూజారి": 5931,
      "బ్రతక": 5932,
      "బ్రతకాలి": 5933,
      "రోజుకి": 5934,
      "దీసి": 5935,
      "దీక్ష": 5936,
      "యూని": 5937,
      "పెట్టకండి": 5938,
      "అర్చ": 5939,
      "తెలిస్తే": 5940,
      "జీవిత": 5941,
      "ఉండడు": 5942,
      "ఉండడం": 5943,
      "చూడను": 5944,
      "వచ్చేసింది": 5945,
      "కదాడి": 5946,
      "బిరియా": 5947,
      "స్తున్నావ్": 5948,
      "గోలు": 5949,
      "గోదా": 5950,
      "గోపాల": 5951,
      "మీదొ": 5952,
      "ప్రజలకి": 5953,
      "మూవీలో": 5954,
      "లైవ్": 5955,
      "మార్చిన": 5956,
      "ఎలాగూ": 5957,
      "శిరస్": 5958,
      "మాటలో": 5959,
      "మాటలే": 5960,
      "మాటల్లో": 5961,
      "అవడం": 5962,
      "అవమానం": 5963,
      "సెకండ్": 5964,
      "సెంటిమెంట్": 5965,
      "నెగి": 5966,
      "నెయ్యి": 5967,
      "వరస్ట్": 5968,
      "పొర": 5969,
      "పొందు": 5970,
      "పొడుగు": 5971,
      "పొత్తు": 5972,
      "బోలా": 5973,
      "బోధి": 5974,
      "పరిణా": 5975,
      "పరిపాలన": 5976,
      "రించిన": 5977,
      "తనకి": 5978,
      "ఏమిట": 5979,
      "దొబ్బు": 5980,
      "తున్నారో": 5981,
      "అవున": 5982,
      "అవునా": 5983,
      "అవుతా": 5984,
      "అవుతున్నారు": 5985,
      "దోచు": 5986,
      "వాళ్లని": 5987,
      "స్టార్టింగ్": 5988,
      "అభిమన్": 5989,
      "పెద్దగా": 5990,
      "న్నులు": 5991,
      "వంగ": 5992,
      "ఎన్నికలు": 5993,
      "స్వాతంత్": 5994,
      "గెలవ": 5995,
      "తప్పెనే": 5996,
      "మాట్లాడా": 5997,
      "ప్రతిష్ట": 5998,
      "దేవుళ్ళ": 5999,
      "దేవుడివి": 6000,
      "లేనిది": 6001,
      "టైప్": 6002,
      "టైలర్": 6003,
      "ముందుగానే": 6004,
      "ప్రాంత": 6005,
      "చెయ్యడానికి": 6006,
      "చెయ్యలేరు": 6007,
      "బొల్లి": 6008,
      "టాల": 6009,
      "పనిలేదు": 6010,
      "ఇంతకాలం": 6011,
      "అన్నింటి": 6012,
      "ఫ్లో": 6013,
      "పడిన": 6014,
      "నాలుక": 6015,
      "ంచేది": 6016,
      "ఇవ్వడు": 6017,
      "ఇవ్వొచ్చు": 6018,
      "ఇవ్వడమేమి": 6019,
      "విజయ్": 6020,
      "షించా": 6021,
      "జెండా": 6022,
      "వల్లనే": 6023,
      "ఎక్కడె": 6024,
      "చేసినప్పుడు": 6025,
      "తున్నప్పుడు": 6026,
      "అర్థవంత": 6027,
      "కలిగే": 6028,
      "గొప్పది": 6029,
      "గొప్పతనం": 6030,
      "డ్డలి": 6031,
      "్రెడీ": 6032,
      "నవ్వుకుంటూ": 6033,
      "సైన్స్": 6034,
      "సైతం": 6035,
      "పోయావా": 6036,
      "తెలియదా": 6037,
      "వాడివి": 6038,
      "సర్లు": 6039,
      "సర్వీ": 6040,
      "తొలి": 6041,
      "సాధించి": 6042,
      "రాజకీయా": 6043,
      "శుభో": 6044,
      "కార్డు": 6045,
      "క్రే": 6046,
      "న్యూన్": 6047,
      "మనసున్న": 6048,
      "అనిపించే": 6049,
      "అదేంటో": 6050,
      "నందం": 6051,
      "భూత": 6052,
      "వినవే": 6053,
      "వినలేదు": 6054,
      "వినటం": 6055,
      "దూర": 6056,
      "దూకెనే": 6057,
      "మొదలైన": 6058,
      "కొడుకుని": 6059,
      "వలపు": 6060,
      "వందనములు": 6061,
      "గుర్రంగా": 6062,
      "ఉంటాను": 6063,
      "మర్డర్": 6064,
      "కాంబినేషన్": 6065,
      "పడుతున్న": 6066,
      "ఫాస్ట్": 6067,
      "పరంగా": 6068,
      "మహాదేవ": 6069,
      "ప్రభువు": 6070,
      "చెప్తారా": 6071,
      "అనలేదు": 6072,
      "ఆడవాళ్ళ": 6073,
      "కుంటాడు": 6074,
      "జోడీ": 6075,
      "చేసావ్": 6076,
      "చేసారో": 6077,
      "మరణి": 6078,
      "గ్రామం": 6079,
      "గ్రాఫిక్స్": 6080,
      "ఇద్దరికీ": 6081,
      "ఏడుస్తోంది": 6082,
      "చిన్నమ్మ": 6083,
      "యాక్ట్": 6084,
      "కల్తీ": 6085,
      "ఫోర్": 6086,
      "బ్యాన్": 6087,
      "బాధలు": 6088,
      "బాధగా": 6089,
      "పూర్వీ": 6090,
      "ఇచ్చింది": 6091,
      "ప్రోత్స": 6092,
      "అమ్మాయిని": 6093,
      "హిందూమతం": 6094,
      "స్వరం": 6095,
      "డైరెక్టర్స్": 6096,
      "గెలిచే": 6097,
      "ఏంటండీ": 6098,
      "నమ్మవద్దు": 6099,
      "తెలంగాణా": 6100,
      "వచ్చేస్తుంది": 6101,
      "బేబీ": 6102,
      "చేసుకుంటారు": 6103,
      "చేసుకుంటూ": 6104,
      "జాతకాలు": 6105,
      "జరిగితే": 6106,
      "కనపడుతుంది": 6107,
      "అక్కడే": 6108,
      "చరిత్రలో": 6109,
      "ఉద్యోగులకు": 6110,
      "జనాన్ని": 6111,
      "జనాలకు": 6112,
      "జనాలను": 6113,
      "జనాలకి": 6114,
      "గుండెపై": 6115,
      "గుండెనేమో": 6116,
      "అవకాశాలు": 6117,
      "మనిషిని": 6118,
      "మనిషికి": 6119,
      "కనిపిస్తే": 6120,
      "ఆంధ్రా": 6121,
      "కలుగు": 6122,
      "కష్టా": 6123,
      "కష్టానికి": 6124,
      "కరెక్టా": 6125,
      "కులగజ్జి": 6126,
      "రకంగా": 6127,
      "సౌండ్": 6128,
      "హోరా": 6129,
      "హోమం": 6130,
      "రాయీ": 6131,
      "ంటెడ్": 6132,
      "సిగ్గులేని": 6133,
      "బ్రాండ్": 6134,
      "నిజాం": 6135,
      "చేశారా": 6136,
      "చేశాడో": 6137,
      "చేశాడూ": 6138,
      "కొట్టుకు": 6139,
      "డెవల": 6140,
      "రైతు": 6141,
      "రైటర్": 6142,
      "గర్వం": 6143,
      "మృదు": 6144,
      "ంగుడు": 6145,
      "చేసుకోవాలి": 6146,
      "వున్నాడు": 6147,
      "వున్నావు": 6148,
      "ఆంధ్రలో": 6149,
      "మీడియాలో": 6150,
      "కంటికి": 6151,
      "దేవతల": 6152,
      "థియేటర్లలో": 6153,
      "ఇచ్చారా": 6154,
      "అతనికి": 6155,
      "వృధా": 6156,
      "కుక్కల": 6157,
      "కుక్కని": 6158,
      "విన్నర్": 6159,
      "పురాణంలో": 6160,
      "వీళ్ళని": 6161,
      "ఇంకోటి": 6162,
      "భూమిని": 6163,
      "ఫేవరెట్": 6164,
      "చేయాలా": 6165,
      "చేయాలంటే": 6166,
      "చేయాల్సిన": 6167,
      "అవ్వడం": 6168,
      "సందీప్": 6169,
      "రూపాయ": 6170,
      "రూపాయి": 6171,
      "బొక్కలో": 6172,
      "దర్శనం": 6173,
      "అందించిన": 6174,
      "ఉపన్యా": 6175,
      "గూడ": 6176,
      "గూండా": 6177,
      "టూరి": 6178,
      "పట్టుకొని": 6179,
      "సహజంగా": 6180,
      "డియన్": 6181,
      "కొట్టారు": 6182,
      "శాస్త్రి": 6183,
      "మాట్లాడండి": 6184,
      "కళ్ళకు": 6185,
      "పండితులు": 6186,
      "వస్తువులు": 6187,
      "వస్తుందో": 6188,
      "బాస్కర్": 6189,
      "వ్యక్తిగత": 6190,
      "ఎప్పటికి": 6191,
      "చూడలేకపోయినా": 6192,
      "నెలల": 6193,
      "మతస్తులు": 6194,
      "మతాన్ని": 6195,
      "మతానికి": 6196,
      "మతాలను": 6197,
      "వచనం": 6198,
      "ర్థం": 6199,
      "మారితే": 6200,
      "రావతి": 6201,
      "విలువలు": 6202,
      "చూస్తున్నాను": 6203,
      "చదువుకున్న": 6204,
      "అరటి": 6205,
      "ఎన్కౌంటర్": 6206,
      "నటులు": 6207,
      "పంచుకుంటా": 6208,
      "రాధ్యా": 6209,
      "కోసము": 6210,
      "కొట్టింది": 6211,
      "వెన్నెలా": 6212,
      "వెన్నెలకి": 6213,
      "ప్రోగ్రామ్స్": 6214,
      "ఎక్కడా": 6215,
      "ఖాయం": 6216,
      "పచ్చని": 6217,
      "భోగ": 6218,
      "ప్రియ": 6219,
      "పోతున్నాయి": 6220,
      "పుట్టినరోజు": 6221,
      "అంబా": 6222,
      "అంకితం": 6223,
      "ఇమ్మాన్": 6224,
      "ఒరేయి": 6225,
      "కన్నీరు": 6226,
      "చనిపోతే": 6227,
      "దశహరా": 6228,
      "రక్తం": 6229,
      "నిద్రలే": 6230,
      "స్త్రీలు": 6231,
      "వివరించండి": 6232,
      "వుండదు": 6233,
      "దారుణ": 6234,
      "అనుకుంటాడు": 6235,
      "డ్రామాలు": 6236,
      "తగ్గించు": 6237,
      "ఇండియన్": 6238,
      "చిత్రాలు": 6239,
      "సంపాదించిన": 6240,
      "అనుకోలేదు": 6241,
      "లక్ష్మ": 6242,
      "ఆశీర్": 6243,
      "జరిపి": 6244,
      "జరగదు": 6245,
      "ధర్మానికి": 6246,
      "వివాదా": 6247,
      "డాన్సు": 6248,
      "నేర్పు": 6249,
      "వేణుస్వామి": 6250,
      "ఆధారంగా": 6251,
      "ఆత్మహత్య": 6252,
      "నవ్వొ": 6253,
      "నానానే": 6254,
      "వివేకం": 6255,
      "తులసి": 6256,
      "సంకనాకి": 6257,
      "క్షుద్ర": 6258,
      "రాష్ట్రాన్ని": 6259,
      "ఉపయోగి": 6260,
      "ఉచితంగా": 6261,
      "కన్నుల": 6262,
      "భర్తలు": 6263,
      "భర్తల": 6264,
      "మధురమైన": 6265,
      "పుట్టారు": 6266,
      "కూర్చొ": 6267,
      "గ్రహాల": 6268,
      "సెక్సు": 6269,
      "ప్రేమించడం": 6270,
      "ఇస్మార్ట్": 6271,
      "ఎర్రిపూ": 6272,
      "ఘనవిజయం": 6273,
      "భరత్": 6274,
      "మహిమ": 6275,
      "మహిళా": 6276,
      "నిమిషా": 6277,
      "వెయిట్": 6278,
      "వెయ్యండి": 6279,
      "మర్చిపోయి": 6280,
      "ముసలోడే": 6281,
      "బలిసిన": 6282,
      "ప్రజాపతి": 6283,
      "కొరకు": 6284,
      "జీవితానికి": 6285,
      "కార్తీకదీపం": 6286,
      "పల్లెటూరి": 6287,
      "అక్షరాల": 6288,
      "అమాయకులు": 6289,
      "గ్యారంటీ": 6290,
      "జానపద": 6291,
      "వ్యక్తులు": 6292,
      "వ్యక్తుల": 6293,
      "దొరలు": 6294,
      "చంద్రుడు": 6295,
      "ఎక్సలెంట్": 6296,
      "తరగని": 6297,
      "రామాయణంలో": 6298,
      "పోవటం": 6299,
      "వెనక": 6300,
      "వెనకా": 6301,
      "తీసుకోవాలి": 6302,
      "భావన": 6303,
      "శాశ్వతం": 6304,
      "శాశ్వతమైన": 6305,
      "క్లారిటీ": 6306,
      "కాలానికి": 6307,
      "దిగజారి": 6308,
      "బాలుడు": 6309,
      "పెర్ఫార్మెన్స్": 6310,
      "గెలుపు": 6311,
      "తప్పితే": 6312,
      "తొక్కలో": 6313,
      "అమృత": 6314,
      "అమృతం": 6315,
      "ఆల్రెడీ": 6316,
      "ఉద్దేశి": 6317,
      "ఎవర్రా": 6318,
      "తరినాన": 6319,
      "నమ్మాలి": 6320,
      "బౌద్ధ": 6321,
      "బౌద్ధా": 6322,
      "వ్రాసిన": 6323,
      "రాక్షస": 6324,
      "రాక్షసులు": 6325,
      "డిస్క": 6326,
      "డిస్మిస్": 6327,
      "కొనసాగు": 6328,
      "సంగతి": 6329,
      "సంగమి": 6330,
      "స్టెప్స్": 6331,
      "వినాలనిపించే": 6332,
      "అడుక్కు": 6333,
      "అడుగే": 6334,
      "అబ్బవరం": 6335,
      "అంటున్నావు": 6336,
      "ఆఖరి": 6337,
      "ఎన్నాళ్ళు": 6338,
      "ఎమోషనల్": 6339,
      "ధనుష్": 6340,
      "సలాం": 6341,
      "సబ్జెక్టు": 6342,
      "కావున": 6343,
      "పోతున్నది": 6344,
      "పురుష": 6345,
      "పురుషు": 6346,
      "పుస్తకం": 6347,
      "రెండూ": 6348,
      "ట్రెయిలర్": 6349,
      "దుర్మార్గం": 6350,
      "నిజాయితీగా": 6351,
      "ఆవిడ": 6352,
      "కమెడియన్స్": 6353,
      "కమెడియన్": 6354,
      "దద్దమ్మ": 6355,
      "బద్దలు": 6356,
      "షూటింగ్": 6357,
      "నారాయణ": 6358,
      "మాధవిని": 6359,
      "తీసుకొచ్చి": 6360,
      "య్యేలా": 6361,
      "బిర్యాని": 6362,
      "అలవాటు": 6363,
      "సంస్కృతం": 6364,
      "అబద్ధాలు": 6365,
      "బృహత్": 6366,
      "రుణమాఫీ": 6367,
      "నారదుడు": 6368,
      "గుడ్డలు": 6369,
      "ప్రైవేట్": 6370,
      "నీదంటున్న": 6371,
      "చెయ్యాలని": 6372,
      "పిలవండి": 6373,
      "టివిటీ": 6374,
      "సీబీన్": 6375,
      "గొర్రెలు": 6376,
      "అర్ధమ": 6377,
      "ఎలాగైనా": 6378,
      "పొడుచు": 6379,
      "పరిశీలించండి": 6380,
      "కళాకారు": 6381,
      "తొందరగా": 6382,
      "భగవంతుడు": 6383,
      "కనిపించని": 6384,
      "అద్దం": 6385,
      "ఆశీస్సులు": 6386,
      "ఇక్కడే": 6387,
      "ఉగ్రవా": 6388,
      "కన్ఫ్యూ": 6389,
      "ఘాటు": 6390,
      "నచ్చావే": 6391,
      "బహిష్": 6392,
      "శ్యామ్": 6393,
      "ట్సాఫ్": 6394,
      "పాలకులు": 6395,
      "ప్రయాణం": 6396,
      "క్కర్లేదు": 6397,
      "స్టూడెంట్": 6398,
      "హార్డ్": 6399,
      "గురుభ్యోనమః": 6400,
      "సాధించలని": 6401,
      "గుర్తొస్తుంది": 6402,
      "ఛానెల్": 6403,
      "చదివేవాళ్ళు": 6404,
      "అట్టర్": 6405,
      "అత్యంత": 6406,
      "అసహ్యం": 6407,
      "ఆక్రమి": 6408,
      "బ్యూటిఫుల్": 6409,
      "రశ్మి": 6410,
      "సలహా": 6411,
      "నిత్యావ": 6412,
      "స్నానం": 6413,
      "రాజీనామా": 6414,
      "చేమంతి": 6415,
      "బాంబులు": 6416,
      "బాధాకరం": 6417,
      "ప్రకృతి": 6418,
      "మురళి": 6419,
      "లైంగికదాడి": 6420,
      "కెమికల్": 6421,
      "కంగ్రాట్స్": 6422,
      "సరదాగా": 6423,
      "భారతీయు": 6424,
      "పురాణాల్లో": 6425,
      "వైఎస్సార్సీపీ": 6426,
      "విమర్శలు": 6427,
      "అంబేద్కర్": 6428,
      "ఎంటర్టైన్మెంట్": 6429,
      "అమెరికా": 6430,
      "అమోఘం": 6431,
      "అధ్బు": 6432,
      "ఉయ్యాలో": 6433,
      "ఎనిమిది": 6434,
      "ఐక్యత": 6435,
      "కబుర్లు": 6436,
      "ఖలేజా": 6437,
      "తందన": 6438,
      "మతోన్మా": 6439,
      "హౌలే": 6440,
      "పాయింట్": 6441,
      "పాపులర్": 6442,
      "పాలెం": 6443,
      "ముచ్చట": 6444,
      "సుప్రీం": 6445,
      "పర్సనల్": 6446,
      "మొత్తానికి": 6447,
      "గ్రౌండ్": 6448,
      "పరిస్థితులు": 6449,
      "ఆర్థిక": 6450,
      "పడిచస్తున్న": 6451,
      "మహర్షి": 6452,
      "నియోజకవర్గం": 6453,
      "స్వచ్ఛమైన": 6454,
      "అప్పారావు": 6455,
      "అమావాస్య": 6456,
      "ఇసుక": 6457,
      "ఈటీవి": 6458,
      "ఝాన్": 6459,
      "దసరా": 6460,
      "యశోద": 6461,
      "సన్నగా": 6462,
      "నియంత్రణ": 6463,
      "స్కీట్": 6464,
      "కుసుమరి": 6465,
      "నాచిరావా": 6466,
      "రాచరికం": 6467,
      "క్లైమాక్స్": 6468,
      "లాంగ్వేజ్": 6469,
      "సిబ్బంది": 6470,
      "గుప్పెడంత": 6471,
      "బాహుబలి": 6472,
      "డామినేట్": 6473,
      "పాండమి": 6474,
      "సాధారణ": 6475,
      "మింగినపుడు": 6476,
      "మేనిఫెస్టో": 6477,
      "శ్రీశైలం": 6478,
      "వైయస్సార్": 6479,
      "బిరియాని": 6480,
      "ఇవ్వడమేమిటో": 6481,
      "శుభోదయం": 6482,
      "ప్రోత్సహి": 6483,
      "కూర్చొని": 6484,
      "కన్ఫ్యూజన్": 6485,
      "ంచె": 6486,
      "ంబ్లీ": 6487,
      "అద": 6488,
      "అరి": 6489,
      "అస్త": 6490,
      "అదు": 6491,
      "అసు": 6492,
      "అబ్": 6493,
      "అల్ల": 6494,
      "అలీ": 6495,
      "అష్ట": 6496,
      "అబి": 6497,
      "అసె": 6498,
      "అట్లు": 6499,
      "అనూ": 6500,
      "అన్య": 6501,
      "అదె": 6502,
      "అల్లా": 6503,
      "అరియ": 6504,
      "అమర్": 6505,
      "అపర": 6506,
      "అమర": 6507,
      "అన్యా": 6508,
      "అస్తి": 6509,
      "అకౌ": 6510,
      "అంధం": 6511,
      "అచ్చె": 6512,
      "అడ్డం": 6513,
      "అసమర్థ": 6514,
      "అజ్ఞాని": 6515,
      "ఆఆ": 6516,
      "ఆకు": 6517,
      "ఆసి": 6518,
      "ఆన్న": 6519,
      "ఆవు": 6520,
      "ఆశా": 6521,
      "ఆహ్": 6522,
      "ఆధు": 6523,
      "ఆకట్టు": 6524,
      "ఆస్తుల": 6525,
      "ఇజ": 6526,
      "ఇయ": 6527,
      "ఇట్": 6528,
      "ఇన్నా": 6529,
      "ఇతి": 6530,
      "ఇళ్ళ": 6531,
      "ఇస్తారు": 6532,
      "ఇఫ్": 6533,
      "ఇట్ల": 6534,
      "ఇన్నే": 6535,
      "ఇప్పి": 6536,
      "ఉం": 6537,
      "ఉద": 6538,
      "ఉపా": 6539,
      "ఉదయ": 6540,
      "ఉందీ": 6541,
      "ఊసుల": 6542,
      "ఎక": 6543,
      "ఎట": 6544,
      "ఎర్": 6545,
      "ఎన్న": 6546,
      "ఎడా": 6547,
      "ఎపు": 6548,
      "ఎల్ల": 6549,
      "ఎల్లో": 6550,
      "ఎన్ను": 6551,
      "ఎలక్ష": 6552,
      "ఎందరో": 6553,
      "ఏవ": 6554,
      "ఏసు": 6555,
      "ఏన్ని": 6556,
      "ఏళ్ళు": 6557,
      "ఏమై": 6558,
      "ఏళ్ల": 6559,
      "ఏందీ": 6560,
      "ఒన్": 6561,
      "ఒంట": 6562,
      "ఒరె": 6563,
      "ఒడ్డి": 6564,
      "ఒహో": 6565,
      "ఒడియ": 6566,
      "ఓట్": 6567,
      "ఓపిక": 6568,
      "కణ": 6569,
      "కత": 6570,
      "కట్": 6571,
      "కలా": 6572,
      "కసి": 6573,
      "కది": 6574,
      "కబ్": 6575,
      "కైన": 6576,
      "కమ్ము": 6577,
      "కంతో": 6578,
      "కటే": 6579,
      "కనాలి": 6580,
      "కత్వ": 6581,
      "ఖని": 6582,
      "ఖండి": 6583,
      "ఖడ్": 6584,
      "గై": 6585,
      "గడు": 6586,
      "గడ్": 6587,
      "గలను": 6588,
      "గరికి": 6589,
      "గడానికి": 6590,
      "గడ్డం": 6591,
      "ఘనిస్తాన్": 6592,
      "చన్": 6593,
      "చప్పుడు": 6594,
      "చచ్చే": 6595,
      "చక్రా": 6596,
      "జలి": 6597,
      "జల్ల": 6598,
      "జల్లే": 6599,
      "జరుపు": 6600,
      "జగ్లక్": 6601,
      "టక": 6602,
      "టారు": 6603,
      "డల్": 6604,
      "డము": 6605,
      "డతాడు": 6606,
      "డబ్బి": 6607,
      "డబ్బే": 6608,
      "ణ్యం": 6609,
      "తవ్": 6610,
      "తరం": 6611,
      "తలకు": 6612,
      "తమరి": 6613,
      "తల్లే": 6614,
      "తత్వం": 6615,
      "తనాల": 6616,
      "థం": 6617,
      "థర్": 6618,
      "దస్త": 6619,
      "దత్త": 6620,
      "దత్తు": 6621,
      "దరణ": 6622,
      "దక్షు": 6623,
      "ధీ": 6624,
      "ధలకు": 6625,
      "నృ": 6626,
      "నని": 6627,
      "నక్": 6628,
      "నది": 6629,
      "ననే": 6630,
      "నము": 6631,
      "నటీ": 6632,
      "నహి": 6633,
      "నయ్యో": 6634,
      "నమ్మే": 6635,
      "పక": 6636,
      "పనా": 6637,
      "పడా": 6638,
      "పరో": 6639,
      "పడం": 6640,
      "పద్ద": 6641,
      "పైనా": 6642,
      "పరుగు": 6643,
      "పట్టే": 6644,
      "పరాయి": 6645,
      "పక్షు": 6646,
      "పనుల": 6647,
      "పన్నులు": 6648,
      "ఫన్": 6649,
      "ఫైన": 6650,
      "బర": 6651,
      "బరు": 6652,
      "బడా": 6653,
      "బయ్యా": 6654,
      "బండ్": 6655,
      "బబ్బు": 6656,
      "బంతి": 6657,
      "బంధి": 6658,
      "బంద్": 6659,
      "బటన్": 6660,
      "భే": 6661,
      "భ్": 6662,
      "భేది": 6663,
      "మః": 6664,
      "మకు": 6665,
      "మన్న": 6666,
      "మనే": 6667,
      "మమ్": 6668,
      "మగ్": 6669,
      "మస్తు": 6670,
      "మరం": 6671,
      "మన్స్": 6672,
      "మండు": 6673,
      "మబ్బు": 6674,
      "మడ్డ": 6675,
      "మంటున్నా": 6676,
      "మండ్రి": 6677,
      "మదన": 6678,
      "మధ్యా": 6679,
      "యజ": 6680,
      "యతి": 6681,
      "యన్స్": 6682,
      "యదవ": 6683,
      "రవ": 6684,
      "రస": 6685,
      "రగా": 6686,
      "రంట": 6687,
      "రమి": 6688,
      "రహి": 6689,
      "రద్దు": 6690,
      "రక్తి": 6691,
      "రబ్బా": 6692,
      "రదృ": 6693,
      "రకాల": 6694,
      "రతనాల": 6695,
      "లము": 6696,
      "లభి": 6697,
      "ల్యం": 6698,
      "లంతా": 6699,
      "లఫూ": 6700,
      "వద": 6701,
      "వంట": 6702,
      "వడు": 6703,
      "వయి": 6704,
      "వంటే": 6705,
      "వండి": 6706,
      "వమే": 6707,
      "వశా": 6708,
      "వలె": 6709,
      "వరీ": 6710,
      "వశ్": 6711,
      "వడ్డి": 6712,
      "వందే": 6713,
      "వడ్డ": 6714,
      "వన్నీ": 6715,
      "వడమే": 6716,
      "వసుధా": 6717,
      "శె": 6718,
      "శత్": 6719,
      "షతో": 6720,
      "షర్మ": 6721,
      "సగ": 6722,
      "సమే": 6723,
      "సలై": 6724,
      "హలో": 6725,
      "హమే": 6726,
      "హ్రీ": 6727,
      "హంలో": 6728,
      "హత్తు": 6729,
      "ాను": 6730,
      "ున": 6731,
      "ుత్త": 6732,
      "ూరి": 6733,
      "ేసినట్టే": 6734,
      "నిక": 6735,
      "నిలు": 6736,
      "నిష్": 6737,
      "నిప్పు": 6738,
      "నివ్వు": 6739,
      "నిత్యం": 6740,
      "నియంత": 6741,
      "నిఖి": 6742,
      "నిధులు": 6743,
      "నింపే": 6744,
      "స్ర్": 6745,
      "స్మా": 6746,
      "స్కో": 6747,
      "స్కూ": 6748,
      "స్కున్నా": 6749,
      "ర్ట": 6750,
      "ర్పు": 6751,
      "ర్లను": 6752,
      "ర్థి": 6753,
      "రుడా": 6754,
      "రువెచ్చన": 6755,
      "ందంటే": 6756,
      "లుక్": 6757,
      "లుచ్చా": 6758,
      "్రో": 6759,
      "కులే": 6760,
      "కుజు": 6761,
      "కుత్త": 6762,
      "కుందే": 6763,
      "కుక్కా": 6764,
      "కుదర": 6765,
      "నాట": 6766,
      "నాన్": 6767,
      "నాలో": 6768,
      "నాయా": 6769,
      "నాకూ": 6770,
      "నాలకు": 6771,
      "నాలె": 6772,
      "నాళ్ళు": 6773,
      "నామినే": 6774,
      "గానం": 6775,
      "గాడే": 6776,
      "గాల్లో": 6777,
      "గానో": 6778,
      "గాళ్లు": 6779,
      "గాంధీ": 6780,
      "ట్యు": 6781,
      "రాన్": 6782,
      "రావా": 6783,
      "రాతి": 6784,
      "రాదా": 6785,
      "రాళ్ళ": 6786,
      "రాహి": 6787,
      "రాజి": 6788,
      "రాంధ": 6789,
      "రాళ్లు": 6790,
      "రాకింగ్": 6791,
      "మామా": 6792,
      "మాయం": 6793,
      "మారాజు": 6794,
      "మానాలు": 6795,
      "మానాన్న": 6796,
      "మాధు": 6797,
      "మారక": 6798,
      "మానాలను": 6799,
      "క్య": 6800,
      "క్యం": 6801,
      "క్వశ్": 6802,
      "రిట": 6803,
      "రిలో": 6804,
      "రిపే": 6805,
      "రిల్లి": 6806,
      "రిల్లు": 6807,
      "రిఫరె": 6808,
      "వాగ": 6809,
      "వాద": 6810,
      "వాలో": 6811,
      "వాటర్": 6812,
      "వాళి": 6813,
      "వాట్సా": 6814,
      "కికి": 6815,
      "కిచ్చి": 6816,
      "కిట్టు": 6817,
      "కిరణ": 6818,
      "కిలాడి": 6819,
      "కామ": 6820,
      "కారి": 6821,
      "కాయం": 6822,
      "కాళ్ళు": 6823,
      "కాకులు": 6824,
      "కాళ్లు": 6825,
      "కాషా": 6826,
      "కాకూడదు": 6827,
      "కాంతం": 6828,
      "కాయలు": 6829,
      "కాదన": 6830,
      "కామన్": 6831,
      "కాసేపు": 6832,
      "కాబోయే": 6833,
      "కాశ్మీర్": 6834,
      "నుా": 6835,
      "నుగా": 6836,
      "నురా": 6837,
      "నురో": 6838,
      "నుండ": 6839,
      "నుండే": 6840,
      "డింది": 6841,
      "డిపాజి": 6842,
      "డింపుల్": 6843,
      "డిఫరె": 6844,
      "లోగా": 6845,
      "లోను": 6846,
      "లోలో": 6847,
      "లోంచి": 6848,
      "లోడీ": 6849,
      "లాన్": 6850,
      "లావు": 6851,
      "లాన్ని": 6852,
      "లాభా": 6853,
      "లాంటా": 6854,
      "లాజిక్": 6855,
      "ందిర": 6856,
      "ందిరా": 6857,
      "ందించిన": 6858,
      "ల్నే": 6859,
      "స్తనురో": 6860,
      "చింత": 6861,
      "చించ": 6862,
      "చిన్ని": 6863,
      "చిట్టి": 6864,
      "చివర్": 6865,
      "చిపెట్టి": 6866,
      "చిచ్చు": 6867,
      "చివరకు": 6868,
      "చిలిపి": 6869,
      "సిస్": 6870,
      "సినా": 6871,
      "సిలి": 6872,
      "సిటి": 6873,
      "సిఎం": 6874,
      "సింబ": 6875,
      "సిద్ధం": 6876,
      "సిపోకే": 6877,
      "సింగిల్": 6878,
      "ప్లి": 6879,
      "ప్లీ": 6880,
      "ప్లై": 6881,
      "న్నంగా": 6882,
      "లేవా": 6883,
      "లేస్తే": 6884,
      "లేటె": 6885,
      "చేరు": 6886,
      "చేష్ట": 6887,
      "చేతన": 6888,
      "చేస్తోంది": 6889,
      "గుల్": 6890,
      "గుడా": 6891,
      "గుమ్మ": 6892,
      "గుతున్న": 6893,
      "గుంపు": 6894,
      "గుడిపి": 6895,
      "గులోన": 6896,
      "గుళ్ళో": 6897,
      "లిలో": 6898,
      "లిగి": 6899,
      "లివరీ": 6900,
      "విడ": 6901,
      "విశ": 6902,
      "విగా": 6903,
      "విరా": 6904,
      "విలే": 6905,
      "విడా": 6906,
      "విల్లు": 6907,
      "వివిధ": 6908,
      "విప్పి": 6909,
      "విసిరి": 6910,
      "విజ్ఞాన": 6911,
      "విగ్రహం": 6912,
      "విక్కీ": 6913,
      "విదేశాల్లో": 6914,
      "విభేది": 6915,
      "వుంచి": 6916,
      "వుంటు": 6917,
      "వునికి": 6918,
      "వులను": 6919,
      "వుందా": 6920,
      "వుతున్న": 6921,
      "న్నావా": 6922,
      "న్నాను": 6923,
      "న్నాలే": 6924,
      "న్నావు": 6925,
      "ప్పై": 6926,
      "దిగా": 6927,
      "దిగు": 6928,
      "దిరించి": 6929,
      "దించే": 6930,
      "దులకు": 6931,
      "దురదృ": 6932,
      "బార్": 6933,
      "బాలా": 6934,
      "బాగ్": 6935,
      "బాలీవుడ్": 6936,
      "మీలాగా": 6937,
      "మీరంటే": 6938,
      "డాల": 6939,
      "పాన": 6940,
      "పార": 6941,
      "పాసు": 6942,
      "పాకీ": 6943,
      "పాడితే": 6944,
      "పాదం": 6945,
      "పారాశర": 6946,
      "సాయ": 6947,
      "సావ": 6948,
      "సావు": 6949,
      "సాగ్": 6950,
      "సాన్ని": 6951,
      "సామె": 6952,
      "సాహం": 6953,
      "సాయంత": 6954,
      "ంతస్థా": 6955,
      "ళ్లో": 6956,
      "ళ్లని": 6957,
      "ళ్లతో": 6958,
      "చాను": 6959,
      "చాలి": 6960,
      "చాటి": 6961,
      "ప్రతా": 6962,
      "ప్రధా": 6963,
      "ప్రెస్": 6964,
      "ప్రపంచా": 6965,
      "ప్రదర్శి": 6966,
      "ప్రసంగా": 6967,
      "నీర్": 6968,
      "నీయం": 6969,
      "నీకె": 6970,
      "కోడ": 6971,
      "కోని": 6972,
      "కోరి": 6973,
      "కోసి": 6974,
      "కోడలు": 6975,
      "కోణంలో": 6976,
      "యిలే": 6977,
      "యిడ్": 6978,
      "తుపు": 6979,
      "తుప్పు": 6980,
      "తుజు": 6981,
      "తుజే": 6982,
      "నేత": 6983,
      "నేది": 6984,
      "నేతలు": 6985,
      "ముకు": 6986,
      "మును": 6987,
      "ముజ్": 6988,
      "ములను": 6989,
      "ముక్తి": 6990,
      "ముంబ": 6991,
      "ముష్టి": 6992,
      "ముప్పై": 6993,
      "చెందు": 6994,
      "చెమ్మా": 6995,
      "చెల్లు": 6996,
      "చెరువు": 6997,
      "చెర్ల": 6998,
      "చెరిపే": 6999,
      "సుపర్": 7000,
      "సుస్వాగతం": 7001,
      "సునామీ": 7002,
      "మ్మీద": 7003,
      "తిట్టు": 7004,
      "తింటారు": 7005,
      "తిథి": 7006,
      "తియ్యి": 7007,
      "తిప్పలు": 7008,
      "గ్గి": 7009,
      "పోయ": 7010,
      "పోసి": 7011,
      "పోలే": 7012,
      "పోస్టర్": 7013,
      "పోతూ": 7014,
      "ద్వి": 7015,
      "ద్దే": 7016,
      "కొవ్వు": 7017,
      "కొస్తే": 7018,
      "కొందరి": 7019,
      "కొమరం": 7020,
      "వ్వా": 7021,
      "యాదవ": 7022,
      "దాయ": 7023,
      "దారులు": 7024,
      "దాచిపెట్టి": 7025,
      "మిరు": 7026,
      "మికు": 7027,
      "మిరి": 7028,
      "మింగు": 7029,
      "పిండి": 7030,
      "పించి": 7031,
      "పిరికి": 7032,
      "పిచో": 7033,
      "చూప": 7034,
      "చూస": 7035,
      "చూడం": 7036,
      "చూస్తుంది": 7037,
      "చూసుకు": 7038,
      "చూపగల": 7039,
      "పెంచుకో": 7040,
      "పెరిగే": 7041,
      "త్వానికి": 7042,
      "ష్ఠి": 7043,
      "టినీ": 7044,
      "టిక్క": 7045,
      "డ్ద": 7046,
      "ళ్ళకు": 7047,
      "స్తుందో": 7048,
      "పులో": 7049,
      "పుణ్య": 7050,
      "పురణం": 7051,
      "వేష": 7052,
      "వేస": 7053,
      "వేత్త": 7054,
      "వేశం": 7055,
      "వేద్య": 7056,
      "వేశారు": 7057,
      "వేస్తూ": 7058,
      "వేదవ": 7059,
      "వేసింది": 7060,
      "వేదం": 7061,
      "వేశాలు": 7062,
      "వేంద్రు": 7063,
      "వేస్కోండి": 7064,
      "దేవీ": 7065,
      "దేవో": 7066,
      "దేవేంద్రు": 7067,
      "తానికి": 7068,
      "తాడే": 7069,
      "తాకాలం": 7070,
      "తారని": 7071,
      "తారక్": 7072,
      "సినిమాను": 7073,
      "సినిమాలే": 7074,
      "సినిమానే": 7075,
      "సినిమాలకు": 7076,
      "సినిమాలతో": 7077,
      "సినిమాలలో": 7078,
      "తెరి": 7079,
      "తెగి": 7080,
      "తెమ్మ": 7081,
      "తెల్లా": 7082,
      "తెంప": 7083,
      "తెచ్చింది": 7084,
      "అన్నంత": 7085,
      "అన్నదంతా": 7086,
      "సూర్యుడు": 7087,
      "బుట్ట": 7088,
      "బుల్లో": 7089,
      "బుగ్గ": 7090,
      "బుర్రి": 7091,
      "కూర": 7092,
      "కూడిన": 7093,
      "కూటమి": 7094,
      "వీట": 7095,
      "వీటికి": 7096,
      "రోల్": 7097,
      "రోజే": 7098,
      "ందుకే": 7099,
      "ంచని": 7100,
      "ంచదు": 7101,
      "ంచటం": 7102,
      "మెస్": 7103,
      "మెరు": 7104,
      "మెంటు": 7105,
      "మెట్టు": 7106,
      "మెడలు": 7107,
      "మెరుపు": 7108,
      "మెలోడీ": 7109,
      "లేదురా": 7110,
      "ంగ్త్": 7111,
      "చాలానే": 7112,
      "ంగాడు": 7113,
      "తేలు": 7114,
      "తేనే": 7115,
      "తేనె": 7116,
      "కేస్": 7117,
      "కేర్": 7118,
      "కేతి": 7119,
      "కేటీఆర్": 7120,
      "కేంద్రీ": 7121,
      "తోని": 7122,
      "సంప్రదా": 7123,
      "సంక్షే": 7124,
      "రేఖ": 7125,
      "రేపటి": 7126,
      "మేకింగ్": 7127,
      "మనయ్యో": 7128,
      "మనలోని": 7129,
      "మనసారా": 7130,
      "గింజ": 7131,
      "వెల": 7132,
      "వెర్": 7133,
      "వెను": 7134,
      "వెట్టి": 7135,
      "వెంట్": 7136,
      "వెల్లి": 7137,
      "వెయ్యి": 7138,
      "వెయ్యాలి": 7139,
      "ంటిక్": 7140,
      "జయమ్మ": 7141,
      "పాటే": 7142,
      "రెనా": 7143,
      "రెడ్": 7144,
      "రెచ్చి": 7145,
      "రెడ్ల": 7146,
      "తీరా": 7147,
      "తీరి": 7148,
      "తీతంగా": 7149,
      "తీసింది": 7150,
      "తీశాడు": 7151,
      "త్రే": 7152,
      "బ్లే": 7153,
      "బ్లం": 7154,
      "రామచంద్ర": 7155,
      "జాడ": 7156,
      "జాని": 7157,
      "చెప్పలేను": 7158,
      "చెప్పకపోయినా": 7159,
      "చెప్పబడును": 7160,
      "య్యె": 7161,
      "య్యడం": 7162,
      "స్ట్ర": 7163,
      "స్టల్": 7164,
      "టీకరణ": 7165,
      "హిక": 7166,
      "హిరో": 7167,
      "బాగుంటు": 7168,
      "బాగుంటా": 7169,
      "బాగుందే": 7170,
      "బాగుపడ": 7171,
      "జుా": 7172,
      "వర్స్": 7173,
      "వర్జి": 7174,
      "వర్షి": 7175,
      "వర్షా": 7176,
      "వాళ్ళం": 7177,
      "వాళ్ళకే": 7178,
      "వాళ్ళతో": 7179,
      "వాళ్ళందరూ": 7180,
      "జీన్స్": 7181,
      "భాధ": 7182,
      "స్కిప్": 7183,
      "శ్రీరాం": 7184,
      "శ్రీవిద్య": 7185,
      "శ్రీరాముని": 7186,
      "ండాలం": 7187,
      "ఎవర": 7188,
      "చుల": 7189,
      "మూవ్": 7190,
      "మూడవ": 7191,
      "ఎంతటి": 7192,
      "ఎంతైనా": 7193,
      "మోహి": 7194,
      "మోసే": 7195,
      "మోజీ": 7196,
      "మోస్ట్": 7197,
      "కీరు": 7198,
      "అందగాడు": 7199,
      "అందాలు": 7200,
      "స్తాం": 7201,
      "స్తావా": 7202,
      "స్తాము": 7203,
      "స్తారని": 7204,
      "స్తానమ్మా": 7205,
      "తెలుసుకు": 7206,
      "తెలుసుకుని": 7207,
      "తెలుసుకుంటే": 7208,
      "తెలుపగలరు": 7209,
      "రూపు": 7210,
      "ంచాము": 7211,
      "ంచానమ్మా": 7212,
      "యువర్": 7213,
      "యుధి": 7214,
      "యులర్": 7215,
      "యుయేల్": 7216,
      "బాబుని": 7217,
      "కర్త": 7218,
      "ద్దీ": 7219,
      "ద్దరూ": 7220,
      "పేస్": 7221,
      "పేర్": 7222,
      "పేరిట": 7223,
      "చేయకుండా": 7224,
      "చేయవచ్చు": 7225,
      "చేయడమే": 7226,
      "చేయటానికి": 7227,
      "మొగ": 7228,
      "మొట్ట": 7229,
      "మొగ్గ": 7230,
      "మొబై": 7231,
      "మొహాలు": 7232,
      "మొనగాడు": 7233,
      "సీత": 7234,
      "సీలు": 7235,
      "సీట్": 7236,
      "సీతకు": 7237,
      "జిక": 7238,
      "జిందా": 7239,
      "హార": 7240,
      "అయిపోయాడు": 7241,
      "అయిపోతారు": 7242,
      "ధిక": 7243,
      "ధిని": 7244,
      "ఎందుకని": 7245,
      "పీక్కు": 7246,
      "పీఠం": 7247,
      "బర్రె": 7248,
      "అంతంత": 7249,
      "అంతవరకు": 7250,
      "అంతకన్నా": 7251,
      "డేం": 7252,
      "డేగా": 7253,
      "డేటా": 7254,
      "గురుగారు": 7255,
      "ధాలు": 7256,
      "కాదుగా": 7257,
      "వైఫ": 7258,
      "వైబ్": 7259,
      "మాత్రము": 7260,
      "ల్లోన": 7261,
      "ఒక్కరి": 7262,
      "ఒక్కరే": 7263,
      "ఒక్కరూ": 7264,
      "ఒక్కడూ": 7265,
      "ఒక్కదాన్ని": 7266,
      "ఒక్కరికీ": 7267,
      "ఒక్కడికే": 7268,
      "ఉన్నవాడు": 7269,
      "ఉన్నోడు": 7270,
      "ఉన్నట్టుగా": 7271,
      "వారిలో": 7272,
      "కోరుకుంటా": 7273,
      "కోరుతున్నాను": 7274,
      "అనుకూ": 7275,
      "అనుకుంటూ": 7276,
      "అనురాధ": 7277,
      "అనుమానం": 7278,
      "అనుభూతి": 7279,
      "అనుకుంట": 7280,
      "గొలు": 7281,
      "గొట్ట": 7282,
      "గొడతారు": 7283,
      "గొడ్డలి": 7284,
      "పూలు": 7285,
      "పూకా": 7286,
      "పూడి": 7287,
      "పూసిన": 7288,
      "బ్రే": 7289,
      "నమై": 7290,
      "లెడు": 7291,
      "లెదు": 7292,
      "లెదా": 7293,
      "లెగి": 7294,
      "లెంటెడ్": 7295,
      "రోజుకు": 7296,
      "రోజుకీ": 7297,
      "లేకపోవడం": 7298,
      "దీనమ్మ": 7299,
      "భిక్ష": 7300,
      "పెట్టీ": 7301,
      "పెట్టలేదు": 7302,
      "పెట్టేది": 7303,
      "పెట్టడమే": 7304,
      "ంచును": 7305,
      "ంచుకున్నా": 7306,
      "ంచుకుని": 7307,
      "జీవించి": 7308,
      "జీవిస్తున్నారు": 7309,
      "చూడక": 7310,
      "చూడకుండా": 7311,
      "చూడలేదా": 7312,
      "చూడవచ్చు": 7313,
      "చూడకూడదు": 7314,
      "చూడలేము": 7315,
      "య్యాల": 7316,
      "య్యారా": 7317,
      "బియ్యం": 7318,
      "బిజీగా": 7319,
      "స్తున్నాము": 7320,
      "జబర్దస్త": 7321,
      "గోరువెచ్చన": 7322,
      "క్కడో": 7323,
      "శ్వాస": 7324,
      "వచ్చినా": 7325,
      "వచ్చిండు": 7326,
      "ప్రజలని": 7327,
      "ప్రజల్లో": 7328,
      "ప్రజల్ని": 7329,
      "ప్రజెంట్": 7330,
      "మైనస్": 7331,
      "లైంది": 7332,
      "లైక్స్": 7333,
      "నిజము": 7334,
      "మార్కెట్": 7335,
      "మార్పులు": 7336,
      "మార్గంలో": 7337,
      "పోయిందని": 7338,
      "రాజే": 7339,
      "రాజన్న": 7340,
      "రాజహం": 7341,
      "రాజమండ్రి": 7342,
      "ఎలాగో": 7343,
      "శిక్షి": 7344,
      "మాటలతో": 7345,
      "మాటల్లే": 7346,
      "మాటడిగిందే": 7347,
      "భుజాల": 7348,
      "అవహే": 7349,
      "సెర్": 7350,
      "సెంట": 7351,
      "సెంట్": 7352,
      "సెలె": 7353,
      "సెటిల్": 7354,
      "సెంటర్": 7355,
      "నెస్": 7356,
      "నెను": 7357,
      "పొడి": 7358,
      "పొతే": 7359,
      "పొగడ": 7360,
      "బోస్": 7361,
      "బోరు": 7362,
      "బోధన": 7363,
      "బోలెడు": 7364,
      "శంకు": 7365,
      "శంభో": 7366,
      "శంకరా": 7367,
      "ఉన్నాం": 7368,
      "ఉన్నావు": 7369,
      "ఉన్నాయా": 7370,
      "ఉన్నారంటే": 7371,
      "ఉన్నాయని": 7372,
      "తెలుగుదేశానికి": 7373,
      "పరిమ": 7374,
      "పరిచే": 7375,
      "పరిధి": 7376,
      "పరిస్తి": 7377,
      "డైట్": 7378,
      "డైలీ": 7379,
      "తనము": 7380,
      "తనతో": 7381,
      "వీడియొ": 7382,
      "తున్నారా": 7383,
      "తున్నావ్": 7384,
      "అవుతు": 7385,
      "అవుతున్న": 7386,
      "అవుతుందో": 7387,
      "అనేవాడు": 7388,
      "దోవ": 7389,
      "బెడ్": 7390,
      "బెట్టు": 7391,
      "బెన్స్": 7392,
      "బెదిరించి": 7393,
      "అభినయం": 7394,
      "స్థలం": 7395,
      "పెద్దమనిషి": 7396,
      "వాడునుా": 7397,
      "కృత్యాలు": 7398,
      "వంసం": 7399,
      "వంశం": 7400,
      "వంశంలో": 7401,
      "పైనే": 7402,
      "సమస్త": 7403,
      "సమకూర్": 7404,
      "స్వార్": 7405,
      "స్వాములు": 7406,
      "ఆదిత్య": 7407,
      "గెనే": 7408,
      "రాజులే": 7409,
      "తప్పవు": 7410,
      "తప్పదు": 7411,
      "ద్దుగా": 7412,
      "రెడ్డికి": 7413,
      "సోమరి": 7414,
      "సోమ్య": 7415,
      "టంగు": 7416,
      "ట్రో": 7417,
      "ందాలు": 7418,
      "ందానికి": 7419,
      "మాట్లాడారు": 7420,
      "హ్హా": 7421,
      "హ్హ్": 7422,
      "హీరోగా": 7423,
      "ప్రతిదీ": 7424,
      "ప్రతిసారి": 7425,
      "ప్రతిసారీ": 7426,
      "చూపిస్తున్నారు": 7427,
      "చూపిస్తున్న": 7428,
      "చూపించండి": 7429,
      "చూపించాడు": 7430,
      "దేవుడా": 7431,
      "దేవుణ్ణి": 7432,
      "టైర్": 7433,
      "టైటి": 7434,
      "టైమ్స్": 7435,
      "ప్రారం": 7436,
      "ప్రాణా": 7437,
      "ప్రాపగా": 7438,
      "చెయ్యక": 7439,
      "చెయ్యలేదు": 7440,
      "చెయ్యకుండా": 7441,
      "చెయ్యటం": 7442,
      "బొట్టు": 7443,
      "బొటన": 7444,
      "టాలు": 7445,
      "టాలెంటెడ్": 7446,
      "ఇంతలా": 7447,
      "ఇంతవరకు": 7448,
      "ప్రేమించిన": 7449,
      "ప్రేమనయ్యో": 7450,
      "అన్నిటికీ": 7451,
      "పెట్టుబడు": 7452,
      "పెట్టుబడి": 7453,
      "అమ్మడు": 7454,
      "అమ్మమ్మ": 7455,
      "పిల్లలను": 7456,
      "పడిపోయా": 7457,
      "పడిపోయింది": 7458,
      "ంచేవారు": 7459,
      "ఇవ్వగలరు": 7460,
      "కలౌ": 7461,
      "కలర్": 7462,
      "కలవాలి": 7463,
      "కల్యాణ్": 7464,
      "కలవాలని": 7465,
      "కలగలి": 7466,
      "జేలు": 7467,
      "జేజేలు": 7468,
      "నోటికి": 7469,
      "విజయవాడ": 7470,
      "ఇంద్రి": 7471,
      "నూటికి": 7472,
      "కోరుకుంటున్నాన": 7473,
      "జెట్": 7474,
      "జెక్ట్": 7475,
      "జెన్యూన్": 7476,
      "నాయకుల": 7477,
      "చంద్రశేఖర్": 7478,
      "ఎక్కడైనా": 7479,
      "చేసినందుకు": 7480,
      "కలిసా": 7481,
      "కలిసే": 7482,
      "కలిపిన": 7483,
      "గొప్పోడు": 7484,
      "మనుధర్మం": 7485,
      "మనుగడ": 7486,
      "అందరిలో": 7487,
      "అందరికంటే": 7488,
      "దెంగి": 7489,
      "ల్లారెడ్డి": 7490,
      "అందుబాటు": 7491,
      "అందుకోవాలని": 7492,
      "నవ్వులే": 7493,
      "నవ్వుకునే": 7494,
      "పోయాక": 7495,
      "పోయాను": 7496,
      "పోయాయి": 7497,
      "పోయారని": 7498,
      "పంచలు": 7499,
      "అన్నావు": 7500,
      "పార్టీల": 7501,
      "తొడ": 7502,
      "కున్నంత": 7503,
      "సాధిస్తుంది": 7504,
      "సాధించిన": 7505,
      "క్రిష్ణ": 7506,
      "పడలేదు": 7507,
      "పడకుండా": 7508,
      "పడకండి": 7509,
      "శుక్": 7510,
      "శుక్ర": 7511,
      "శుద్ధి": 7512,
      "చెత్తలా": 7513,
      "ఆయనను": 7514,
      "క్రో": 7515,
      "చ్చాయి": 7516,
      "మనసున": 7517,
      "మనసుపూర్తిగా": 7518,
      "అనిపిస్త": 7519,
      "అనిపించిన": 7520,
      "అనిపించడం": 7521,
      "అనిపిస్తోంది": 7522,
      "భూతులు": 7523,
      "తప్పులేదు": 7524,
      "పట్టించే": 7525,
      "మంత్రు": 7526,
      "కారణాలు": 7527,
      "వినండి": 7528,
      "హిందీ": 7529,
      "మొదల": 7530,
      "మొదలైంది": 7531,
      "ట్రైన్": 7532,
      "కొడుకుల": 7533,
      "కొడుకుకి": 7534,
      "కొడుకులను": 7535,
      "వందకోట్ల": 7536,
      "గుర్రం": 7537,
      "ఉంటాం": 7538,
      "ఉంటాయ్": 7539,
      "చంపిన": 7540,
      "టోటల్": 7541,
      "మహేశ్": 7542,
      "సరికాదు": 7543,
      "సరిలేరు": 7544,
      "సరిపోతుంది": 7545,
      "క్కిన": 7546,
      "డోర్": 7547,
      "తలుచుకుంటే": 7548,
      "పడుతు": 7549,
      "పడుతున్నారు": 7550,
      "పడుతుందో": 7551,
      "ఫాన్": 7552,
      "ఫామ్": 7553,
      "టేషన్": 7554,
      "పరమార్": 7555,
      "పరవాలేదు": 7556,
      "నువ్వె": 7557,
      "కొడతారు": 7558,
      "చూడాలా": 7559,
      "మెంట్స్": 7560,
      "తర్వాతే": 7561,
      "మహాభారతం": 7562,
      "వాలంటే": 7563,
      "చెప్తాడు": 7564,
      "చెప్తున్నాను": 7565,
      "రాఘవగారు": 7566,
      "అనగా": 7567,
      "జనకా": 7568,
      "జనరేషన్": 7569,
      "కున్నాను": 7570,
      "చెప్పావు": 7571,
      "చెప్పాలను": 7572,
      "చెప్పాల్సిన": 7573,
      "ఆడది": 7574,
      "ఆడవాళ్లు": 7575,
      "ఆడపిల్లల": 7576,
      "ఇదేనేమో": 7577,
      "ఇదేందయ్యా": 7578,
      "పాల్గొ": 7579,
      "ఫిదా": 7580,
      "చేసావు": 7581,
      "భారతి": 7582,
      "వచ్చాయ్": 7583,
      "మరపురా": 7584,
      "వదిన": 7585,
      "సొగ": 7586,
      "కొంగులోన": 7587,
      "గ్రామ": 7588,
      "ఏడుస్తుంటే": 7589,
      "ఏడుస్తూనే": 7590,
      "చిన్నప్పుడు": 7591,
      "చిన్నదో": 7592,
      "చిన్నప్పటి": 7593,
      "చెప్పులు": 7594,
      "చెబుతావు": 7595,
      "యాక్సిడెంట్": 7596,
      "కరొ": 7597,
      "బ్యాడ్": 7598,
      "చేస్తారని": 7599,
      "దానితో": 7600,
      "పూర్వం": 7601,
      "డైలాగు": 7602,
      "ప్రేమనాయ్యో": 7603,
      "కథా": 7604,
      "ప్రోత్": 7605,
      "ఎవరికై": 7606,
      "అమ్మాయిల": 7607,
      "ఇప్పటికైనా": 7608,
      "ఇప్పటిదాకా": 7609,
      "స్వంత": 7610,
      "స్వతంత": 7611,
      "స్వరూపి": 7612,
      "చేస్తున్నావు": 7613,
      "తలకాయ": 7614,
      "ట్లయితే": 7615,
      "గెలిచిన": 7616,
      "గెలిచినా": 7617,
      "ఏమంటారు": 7618,
      "ఏమనాలి": 7619,
      "ఏంటంటే": 7620,
      "ఏంటయ్యా": 7621,
      "గీలో": 7622,
      "నమ్మశక్": 7623,
      "మాస్క్": 7624,
      "వచ్చేది": 7625,
      "చంద్రబాబునాయుడు": 7626,
      "నచ్చితే": 7627,
      "బేస్": 7628,
      "చేసుకుని": 7629,
      "చూసేది": 7630,
      "జాతర": 7631,
      "ధర్మంలో": 7632,
      "నువ్వేం": 7633,
      "కనబడు": 7634,
      "కనబడ": 7635,
      "డ్రామోజీ": 7636,
      "మానండి": 7637,
      "స్థాపన": 7638,
      "దగ్గరకు": 7639,
      "పెట్టాలో": 7640,
      "పెట్టాలని": 7641,
      "చరిత్రను": 7642,
      "జనానికి": 7643,
      "జనాల్ని": 7644,
      "జనాత్మక": 7645,
      "శీతాకాలం": 7646,
      "గుండెలోనే": 7647,
      "త్రివిక్ర": 7648,
      "కనిపిస్తుంది": 7649,
      "కనిపిస్తున్నారు": 7650,
      "కనిపించిన": 7651,
      "కనిపించే": 7652,
      "కలుపు": 7653,
      "కష్టాన్ని": 7654,
      "ధువు": 7655,
      "కులస్థ": 7656,
      "కులధర్మం": 7657,
      "ంచుకోండి": 7658,
      "ంచుకోవడం": 7659,
      "బంగాళా": 7660,
      "హోదా": 7661,
      "రాయమని": 7662,
      "సంవత్సర": 7663,
      "వ్యవహరి": 7664,
      "సమస్యను": 7665,
      "సమస్యలను": 7666,
      "ంపుగా": 7667,
      "జరుగుతున్నాయి": 7668,
      "డెలివరీ": 7669,
      "బలవంతంగా": 7670,
      "వస్తేనే": 7671,
      "చూసినట్టుంది": 7672,
      "తీసుకున్నారు": 7673,
      "తీసుకున్నాడు": 7674,
      "రైంది": 7675,
      "రైతులు": 7676,
      "చిరుత": 7677,
      "చిరునవ్వు": 7678,
      "లేడీస్": 7679,
      "ప్రజలందరూ": 7680,
      "పనికిరారు": 7681,
      "భయమే": 7682,
      "దేశాల": 7683,
      "దేశాలు": 7684,
      "అవ్వాల్సిందే": 7685,
      "బయటికి": 7686,
      "కుంటున్నాడు": 7687,
      "కుంటున్నావు": 7688,
      "మాట్లాడుతాడు": 7689,
      "కరోన": 7690,
      "చోట్ల": 7691,
      "చోడేగా": 7692,
      "టెం": 7693,
      "టెడ్": 7694,
      "మరోసారి": 7695,
      "ట్యూన్": 7696,
      "తీసినా": 7697,
      "చెప్పేవి": 7698,
      "చెప్పేవాడు": 7699,
      "శాంతికుమార్": 7700,
      "స్థిర": 7701,
      "ఎప్పుడైనా": 7702,
      "ఎప్పుడైతే": 7703,
      "గౌత": 7704,
      "చంద్": 7705,
      "చంద్రులు": 7706,
      "డవటం": 7707,
      "తల్లికి": 7708,
      "ాలూ": 7709,
      "దేవతలు": 7710,
      "జడ్జిగా": 7711,
      "హిందువుగా": 7712,
      "ఇచ్చాను": 7713,
      "మౌతు": 7714,
      "వాల్మీకి": 7715,
      "విధానాన్ని": 7716,
      "బాలకృష్ణ": 7717,
      "చూసారు": 7718,
      "ఎవ్వరికి": 7719,
      "ఎవ్వరికీ": 7720,
      "తీయలేదు": 7721,
      "ఇంకోసారి": 7722,
      "తరవాత": 7723,
      "నవ్విన": 7724,
      "పల్లెల్లో": 7725,
      "ఫైవ్": 7726,
      "యెమ": 7727,
      "యెధవా": 7728,
      "లక్ష్య": 7729,
      "లక్ష్యం": 7730,
      "చేయాలో": 7731,
      "పునర్": 7732,
      "పునరు": 7733,
      "శ్వరా": 7734,
      "ఇంటర్వ్యూలో": 7735,
      "త్యానికి": 7736,
      "త్యాచారం": 7737,
      "వెధవల్లారా": 7738,
      "రూపాలు": 7739,
      "దర్శకులు": 7740,
      "దర్శకుడు": 7741,
      "దర్శకత్వ": 7742,
      "గూడు": 7743,
      "గూర్చి": 7744,
      "పట్టుకోవాలి": 7745,
      "చేతిలోనే": 7746,
      "వినిపి": 7747,
      "రోహిణీ": 7748,
      "వెళ్లిన": 7749,
      "జాగ్రత": 7750,
      "శాస్త్రాది": 7751,
      "పేదవాళ్ళు": 7752,
      "పేదవాడి": 7753,
      "మాట్లాడడం": 7754,
      "మాట్లాడతారు": 7755,
      "ఇష్టము": 7756,
      "ఇష్టపడ": 7757,
      "చదువులు": 7758,
      "తయారైంది": 7759,
      "తమ్ముళ్లు": 7760,
      "వ్యాఖ్య": 7761,
      "స్క్రిట్": 7762,
      "విన్నాలే": 7763,
      "వ్యక్తిని": 7764,
      "పడేయాలి": 7765,
      "కాపాడా": 7766,
      "కాపాడింది": 7767,
      "వెళ్ళింది": 7768,
      "వైద్యులు": 7769,
      "వైద్యవిధానం": 7770,
      "ర్థుల": 7771,
      "మారతారు": 7772,
      "మారింది": 7773,
      "నేర్చుకోండి": 7774,
      "నేర్చుకోవడం": 7775,
      "ఎదవలు": 7776,
      "నచ్చడు": 7777,
      "నచ్చడం": 7778,
      "కుర్రా": 7779,
      "చూస్తున్నాం": 7780,
      "యువత": 7781,
      "అభిమానిగా": 7782,
      "కాంగ్రె": 7783,
      "పాలనలో": 7784,
      "అప్పుల": 7785,
      "చర్చ": 7786,
      "ధరమ్": 7787,
      "రాధన": 7788,
      "పాదాల": 7789,
      "పరిష్కరి": 7790,
      "మొదలుపెట్టారు": 7791,
      "భారతదేశ": 7792,
      "స్టోరీలు": 7793,
      "ఎక్కడికి": 7794,
      "ఖాతం": 7795,
      "ఫలితం": 7796,
      "భోగి": 7797,
      "వరుకు": 7798,
      "వేయరు": 7799,
      "స్తానురో": 7800,
      "దొరకదు": 7801,
      "చూడాలనిపి": 7802,
      "అంకుల్": 7803,
      "చనిపోయాడు": 7804,
      "మహతి": 7805,
      "ర్యానికి": 7806,
      "్యూట్": 7807,
      "స్త్రీల": 7808,
      "వివరిస్తున్నారు": 7809,
      "వుండేది": 7810,
      "స్టెంట్": 7811,
      "స్టెప్పులు": 7812,
      "ఇంకొకడు": 7813,
      "ఇంకొకటి": 7814,
      "ఇంట్లోకి": 7815,
      "తగ్గింది": 7816,
      "తగ్గించండి": 7817,
      "అల్లుకున్న": 7818,
      "ఆఫ్గ": 7819,
      "హృదయం": 7820,
      "మామూలోడు": 7821,
      "పెడతాడు": 7822,
      "అనుకోకుండా": 7823,
      "అనుకోవచ్చు": 7824,
      "కల్పితం": 7825,
      "ఆపండ్రా": 7826,
      "ధర్నాలు": 7827,
      "నమోదు": 7828,
      "లగ్నము": 7829,
      "పూజారు": 7830,
      "అధికారంలో": 7831,
      "అమరావతి": 7832,
      "ఆధారం": 7833,
      "ఇబ్బందులు": 7834,
      "ఉండిపోవే": 7835,
      "గట్టిగ": 7836,
      "నవ్వడం": 7837,
      "నవ్వటం": 7838,
      "హరిత": 7839,
      "హ్యాట్సాఫ్": 7840,
      "చేతకాని": 7841,
      "ప్రవచనం": 7842,
      "ఉపయోగం": 7843,
      "ఏముందిరా": 7844,
      "మడతపెట్టి": 7845,
      "తగ్గట్టు": 7846,
      "సృజనాత్మక": 7847,
      "తిరుగులేదు": 7848,
      "కొంచమైనా": 7849,
      "పుట్టలేదు": 7850,
      "సూర్యగ్రహణం": 7851,
      "సూర్యకాంతం": 7852,
      "లీడర్స్": 7853,
      "సెక్యూ": 7854,
      "సెక్యులర్": 7855,
      "అబద్దా": 7856,
      "అసలే": 7857,
      "అప్లి": 7858,
      "ఇన్నినాళ్ళు": 7859,
      "గలుగు": 7860,
      "చచ్చిన": 7861,
      "చచ్చిపోతా": 7862,
      "నడుపు": 7863,
      "నడుస్తుంది": 7864,
      "పడ్డారు": 7865,
      "భరత": 7866,
      "భరద్వా": 7867,
      "కాల్డ్": 7868,
      "పెరుగుతాయి": 7869,
      "పెళ్ళాన్ని": 7870,
      "తెచ్చుకున్న": 7871,
      "గొంతులో": 7872,
      "చంపేశాడు": 7873,
      "మర్చిపో": 7874,
      "మనుషులుగా": 7875,
      "ముసలోడు": 7876,
      "బ్రాహ్మణులకి": 7877,
      "చైతన్": 7878,
      "చైతన్యం": 7879,
      "ఇండియాలో": 7880,
      "స్టిక్": 7881,
      "వారసు": 7882,
      "కామిడి": 7883,
      "వింటేజ్": 7884,
      "చెపుతున్నారు": 7885,
      "చెపుతాడు": 7886,
      "తాతయ్య": 7887,
      "రాజ్యాంగ": 7888,
      "దొరికిన": 7889,
      "సమాజాన్ని": 7890,
      "తెలియజేస్తుంది": 7891,
      "మూర్ఖుడు": 7892,
      "అక్షర": 7893,
      "అక్షరం": 7894,
      "అవార్డ్": 7895,
      "అవార్డులు": 7896,
      "అదృష్ట": 7897,
      "ఇవండీ": 7898,
      "ఎదనే": 7899,
      "గడపల": 7900,
      "జరగాలి": 7901,
      "జంతువు": 7902,
      "జంతువులకు": 7903,
      "గార్కి": 7904,
      "మాదిరి": 7905,
      "పాడింది": 7906,
      "సుమతి": 7907,
      "కొండలు": 7908,
      "మోసపూరి": 7909,
      "అనుకున్నంత": 7910,
      "వ్యక్తులకు": 7911,
      "సెల్యూట్": 7912,
      "చూపిస్తారా": 7913,
      "కుటుంబాల": 7914,
      "అబ్బాయిలు": 7915,
      "చంద్రుడికి": 7916,
      "అప్పటికి": 7917,
      "అప్పటికే": 7918,
      "ఆటలు": 7919,
      "దైవా": 7920,
      "దైవం": 7921,
      "పరీక్షలు": 7922,
      "నిలబె": 7923,
      "నిలబడ": 7924,
      "నిమ్మగడ్డ": 7925,
      "స్సులతో": 7926,
      "లేనంత": 7927,
      "లేనప్పుడు": 7928,
      "లేనటువంటి": 7929,
      "పోవడమే": 7930,
      "పోవడంతో": 7931,
      "పోతుందా": 7932,
      "మిగిలా": 7933,
      "వెనకాల": 7934,
      "తీర్చ": 7935,
      "భావంతో": 7936,
      "శాశ్వతంగా": 7937,
      "శుభకాంక్షలు": 7938,
      "కరణములు": 7939,
      "అచ్చమైన": 7940,
      "ఇతనికి": 7941,
      "ఊహలెగి": 7942,
      "ఏడ్చిన": 7943,
      "కనువి": 7944,
      "కండక్టర్": 7945,
      "కట్టించి": 7946,
      "కట్టిస్తున్నాడు": 7947,
      "గంటల": 7948,
      "చలన": 7949,
      "పథకాల": 7950,
      "పలికే": 7951,
      "ఫ్రే": 7952,
      "ఫార్మన్స్": 7953,
      "మద్యం": 7954,
      "మద్యపాన": 7955,
      "దిగజా": 7956,
      "సామాజిక": 7957,
      "ప్రమాద": 7958,
      "ప్రమాదం": 7959,
      "కూర్చుంటే": 7960,
      "మేకప్": 7961,
      "మేధావులు": 7962,
      "వెళ్ళే": 7963,
      "స్టాప్": 7964,
      "శాంతులు": 7965,
      "అలాంటిది": 7966,
      "గెలుస్తుంది": 7967,
      "తొక్కే": 7968,
      "చోటడిగిందే": 7969,
      "దేవతలను": 7970,
      "ఉంటరు": 7971,
      "ఉద్దేశం": 7972,
      "ఉద్దేశ": 7973,
      "ఊరిలో": 7974,
      "ఎవర్ని": 7975,
      "ఏర్పాటు": 7976,
      "కైక": 7977,
      "తరిమి": 7978,
      "భీమ్": 7979,
      "మల్లేవనం": 7980,
      "సందేహం": 7981,
      "కాలేజీ": 7982,
      "కొనసాగి": 7983,
      "దేవాలయా": 7984,
      "దేవాలయాలు": 7985,
      "హింస": 7986,
      "హింసా": 7987,
      "గ్రంథి": 7988,
      "అధికారి": 7989,
      "అడగండి": 7990,
      "బ్రాహ్మణులు": 7991,
      "అరాచక": 7992,
      "అరాచకం": 7993,
      "అంటున్నాడు": 7994,
      "ఎన్నాళ్లకు": 7995,
      "ఎమోషన్": 7996,
      "కట్టినట్టుగా": 7997,
      "ధనుర్": 7998,
      "నొప్పి": 7999,
      "రమణా": 8000,
      "శ్రాద్ధ": 8001,
      "శ్రాద్ధా": 8002,
      "నిండిన": 8003,
      "నిండిపోయింది": 8004,
      "నిన్నేమని": 8005,
      "నువ్వూ": 8006,
      "లేదేమో": 8007,
      "గుడిలో": 8008,
      "తిరుమల": 8009,
      "ద్వేషం": 8010,
      "పుస్తకాలు": 8011,
      "వీరందరూ": 8012,
      "కేంద్రం": 8013,
      "రెడీగా": 8014,
      "తీసుకె": 8015,
      "తీసుకుంటున్నారు": 8016,
      "వర్తమానాలను": 8017,
      "క్షేత్ర": 8018,
      "ఫీలింగ్స్": 8019,
      "అనవసరం": 8020,
      "హైదరాబాదు": 8021,
      "జరిగేది": 8022,
      "ఉపయోగపడే": 8023,
      "ఆవిడా": 8024,
      "ఆఫీస్": 8025,
      "ఉందొ": 8026,
      "ణ్యై": 8027,
      "పదార్థం": 8028,
      "పంచాయతీ": 8029,
      "బద్దలే": 8030,
      "రత్న": 8031,
      "రత్నాలు": 8032,
      "సహాయం": 8033,
      "వాగుతాడు": 8034,
      "వాగుతున్నాడు": 8035,
      "మీరంతా": 8036,
      "మీరందరూ": 8037,
      "డానికా": 8038,
      "డానికే": 8039,
      "తినడం": 8040,
      "తినడానికి": 8041,
      "పుష్ప": 8042,
      "వీటిని": 8043,
      "కేసులో": 8044,
      "తీసుకొనే": 8045,
      "హాస్యం": 8046,
      "తెలిసేది": 8047,
      "ప్రాణమయ్యో": 8048,
      "సరిపోదు": 8049,
      "నిర్వహించాలి": 8050,
      "చదివితే": 8051,
      "సంస్కృతి": 8052,
      "ప్రయత్నించండి": 8053,
      "అబద్ధాలే": 8054,
      "బృహదత్తు": 8055,
      "అనాలో": 8056,
      "ఆక్సి": 8057,
      "గల్ఫ్": 8058,
      "గల్గుని": 8059,
      "పతనానికి": 8060,
      "భక్తు": 8061,
      "భద్రత": 8062,
      "శూన్యం": 8063,
      "శృంగా": 8064,
      "శృంగుడు": 8065,
      "స్పీచ్": 8066,
      "రిగాయి": 8067,
      "గుర్తింపు": 8068,
      "విడుదల": 8069,
      "విడిపోయిన": 8070,
      "బాక్సులు": 8071,
      "పాపానికి": 8072,
      "ప్రణమయ్యో": 8073,
      "ప్రశాంతంగా": 8074,
      "నీచంగా": 8075,
      "నీదంటున్నా": 8076,
      "పింఛను": 8077,
      "పింఛన్లు": 8078,
      "పెదవి": 8079,
      "వేచివున్న": 8080,
      "అన్నదమ్ముల": 8081,
      "జాన్సీ": 8082,
      "చుక్కల": 8083,
      "హామీలు": 8084,
      "అవతారం": 8085,
      "పరిశీలిస్తే": 8086,
      "మంకీస్": 8087,
      "కళ్ళల్లోనా": 8088,
      "అప్పుడప్పుడు": 8089,
      "యంత్రముల": 8090,
      "అరుణాచల": 8091,
      "వైఎస్ఆర్సీపీ": 8092,
      "తృప్తిగా": 8093,
      "స్మృతిః": 8094,
      "ఆన్సర్": 8095,
      "ఆశీస్సులతో": 8096,
      "ఇతరులు": 8097,
      "కరువులో": 8098,
      "గణపతి": 8099,
      "నచ్చుతుంది": 8100,
      "సిద్ధంగా": 8101,
      "దిశలో": 8102,
      "పాదయాత్ర": 8103,
      "కోలుకోవాలి": 8104,
      "కోలుకోవాలని": 8105,
      "గ్లాస్": 8106,
      "గ్లామర్": 8107,
      "దాసుగా": 8108,
      "సంపూర్ణేష్": 8109,
      "స్టూడియో": 8110,
      "శ్రీనివా": 8111,
      "గ్రంధాల": 8112,
      "ద్రోహం": 8113,
      "సైనికుడు": 8114,
      "అధికారులను": 8115,
      "సంబంధించిన": 8116,
      "సందర్భంలో": 8117,
      "ముస్లిమ్స్": 8118,
      "కుటుంబానికి": 8119,
      "విశ్లేషణ": 8120,
      "బ్రహ్మాండ": 8121,
      "బ్రహ్మానందం": 8122,
      "సంక్రాంతికి": 8123,
      "ఆవేశం": 8124,
      "ఇరగదీ": 8125,
      "ఎగ్జా": 8126,
      "ఓర్పు": 8127,
      "ఖుష్": 8128,
      "చల్లకే": 8129,
      "తగులుతుంది": 8130,
      "దక్షిణ": 8131,
      "ధోషు": 8132,
      "పశువు": 8133,
      "మండలం": 8134,
      "సంతాన": 8135,
      "సభ్యులు": 8136,
      "ప్లేస్": 8137,
      "వినోద్": 8138,
      "ప్రూఫ్": 8139,
      "ప్రార్థి": 8140,
      "తియ్యగుంది": 8141,
      "తానానే": 8142,
      "వెళ్లడం": 8143,
      "ఇంజనీర్": 8144,
      "రాజధానిలా": 8145,
      "ఆర్టిస్ట్": 8146,
      "యాంగిల్స్": 8147,
      "పెట్టుకుంటాడా": 8148,
      "క్రియేటివిటీ": 8149,
      "భగవతే": 8150,
      "రొమాన్స్": 8151,
      "రొమాంటిక్": 8152,
      "సంబంధాల": 8153,
      "సంబంధాలు": 8154,
      "పరిష్కారము": 8155,
      "పరిష్కారమూ": 8156,
      "ఆధారముగా": 8157,
      "బానిసత్వం": 8158,
      "అనవసరంగా": 8159,
      "దౌర్జన్యాలు": 8160,
      "వెచ్చనయ్యె": 8161,
      "అధ్యక్ష": 8162,
      "అరవింద": 8163,
      "ఇమేజు": 8164,
      "ఒరిజి": 8165,
      "చదవాలి": 8166,
      "బంధాలు": 8167,
      "రమ్మనండి": 8168,
      "వక్రీకరి": 8169,
      "నిందిస్తానమ్మా": 8170,
      "కుతంత్రాలు": 8171,
      "క్లోజ్": 8172,
      "సింధు": 8173,
      "బాటలో": 8174,
      "బాయ్స్": 8175,
      "సాహసం": 8176,
      "సాక్షా": 8177,
      "ప్రకాష్": 8178,
      "కోసమైనా": 8179,
      "చెపితే": 8180,
      "తిరగే": 8181,
      "మిమిక్రీ": 8182,
      "పుష్యమిత్ర": 8183,
      "బుద్ధు": 8184,
      "మేల్కొ": 8185,
      "ఎందుకంత": 8186,
      "తండ్రులు": 8187,
      "పూరణా": 8188,
      "రాజశేఖరా": 8189,
      "సెల్ఫ్": 8190,
      "ప్రామాణిక": 8191,
      "వినసొంపుగా": 8192,
      "మనస్పర్ధలకు": 8193,
      "నిర్భయంగా": 8194,
      "కూతురితో": 8195,
      "రొట్టె": 8196,
      "సహస్ర": 8197,
      "డ్రైవర్": 8198,
      "ఎక్స్ప్రెషన్స్": 8199,
      "సచివాలయం": 8200,
      "సామ్రాజ్యాన్ని": 8201,
      "అంగీకరి": 8202,
      "ఆణిముత్యం": 8203,
      "ఆధ్యాత్మిక": 8204,
      "ఇట్లాంటి": 8205,
      "ఎరుగని": 8206,
      "ఏలరా": 8207,
      "ఓటర్లు": 8208,
      "కమ్యూని": 8209,
      "చౌదరి": 8210,
      "చట్టాలు": 8211,
      "ఢాం": 8212,
      "బడ్జెట్": 8213,
      "యవ్వనం": 8214,
      "వశిష్టుడు": 8215,
      "వశీకరణములు": 8216,
      "శత్రువులు": 8217,
      "హనుమంత": 8218,
      "నిబంధనలు": 8219,
      "స్పూఫ్": 8220,
      "చిన్నారి": 8221,
      "విచారణ": 8222,
      "విశేష": 8223,
      "దున్నపోతు": 8224,
      "చాణూ": 8225,
      "దాదాపు": 8226,
      "మిథున": 8227,
      "టికెట్స్": 8228,
      "బుల్లితెర": 8229,
      "బుధుడు": 8230,
      "బుడగజంగా": 8231,
      "మెడికల్": 8232,
      "రేవంత్": 8233,
      "బ్లెస్స్": 8234,
      "టీచర్స్": 8235,
      "హాయిగా": 8236,
      "వైద్యాన్ని": 8237,
      "అర్చకులు": 8238,
      "గోదావరి": 8239,
      "శిరస్సు": 8240,
      "పొరపాటు": 8241,
      "ఏమిటంటే": 8242,
      "అవునన్నాలే": 8243,
      "వంగవీటి": 8244,
      "అర్థవంతమైన": 8245,
      "సర్వీస్": 8246,
      "రాజకీయాల్లోకి": 8247,
      "క్రేజ్": 8248,
      "పూర్వీకులు": 8249,
      "కష్టాల్లో": 8250,
      "డెవలప్మెంట్": 8251,
      "రూపాయల": 8252,
      "ఇమ్మాన్యుయేల్": 8253,
      "ఉద్దేశించి": 8254,
      "బౌద్ధాన్ని": 8255,
      "అడుగేసే": 8256,
      "బృహత్పరాశర": 8257,
      "నిత్యావసర": 8258,
      "చేమంతివనం": 8259,
      "అధ్బుతంగా": 8260,
      "ముచ్చటగా": 8261,
      "సుప్రీంకోర్టు": 8262,
      "ఝాన్సీ": 8263,
      "అసెంబ్లీ": 8264,
      "ఆధునిక": 8265,
      "ఇజ్రా": 8266,
      "ఇఫ్తార్": 8267,
      "ఊసులది": 8268,
      "ఎలక్షన్స్": 8269,
      "ఒడియమ్మ": 8270,
      "కసిగా": 8271,
      "డబ్బింగ్": 8272,
      "నక్సలై": 8273,
      "పద్దతి": 8274,
      "బండ్ల": 8275,
      "బంధించానమ్మా": 8276,
      "మధ్యాహ్": 8277,
      "లఫూట్": 8278,
      "శత్రువు": 8279,
      "రాంధ్ర": 8280,
      "మాధుర్యం": 8281,
      "క్వశ్చన్": 8282,
      "రిఫరెన్స్": 8283,
      "వాట్సాప్": 8284,
      "డిఫరెంట్": 8285,
      "లాంటాళ్ళ": 8286,
      "చివర్లో": 8287,
      "సింబల్": 8288,
      "లేటెస్ట్": 8289,
      "చేష్టలు": 8290,
      "విభేదినీ": 8291,
      "సామెత": 8292,
      "ప్రతాపం": 8293,
      "తుపుక్": 8294,
      "తుజుకో": 8295,
      "ముంబై": 8296,
      "చూపగలము": 8297,
      "టిక్కె": 8298,
      "బుర్రిపాలెం": 8299,
      "కేంద్రీకృత": 8300,
      "యుధిష్ఠి": 8301,
      "మొబైల్": 8302,
      "జిందాబాద్": 8303,
      "కోరుకుంటాను": 8304,
      "గోరువెచ్చనైన": 8305,
      "రాజహంసలా": 8306,
      "అవహేళన": 8307,
      "పరిస్తితి": 8308,
      "ప్రాపగాండా": 8309,
      "కలగలిసిన": 8310,
      "మరపురాని": 8311,
      "దర్శకత్వంలో": 8312,
      "ంఠ": 8313,
      "ంక్": 8314,
      "ంబి": 8315,
      "ంపైన": 8316,
      "ంచ్చింది": 8317,
      "అగ": 8318,
      "అయ": 8319,
      "అహ": 8320,
      "అలు": 8321,
      "అవా": 8322,
      "అగు": 8323,
      "అయా": 8324,
      "అదా": 8325,
      "అడ్": 8326,
      "అపు": 8327,
      "అసూ": 8328,
      "అంచ": 8329,
      "అతే": 8330,
      "అంటి": 8331,
      "అజయ": 8332,
      "అయు": 8333,
      "అపే": 8334,
      "అమరి": 8335,
      "అదీ": 8336,
      "అదో": 8337,
      "అసో": 8338,
      "అణి": 8339,
      "అక్ర": 8340,
      "అట్ల": 8341,
      "అమాన": 8342,
      "అభయ": 8343,
      "అటె": 8344,
      "అండీ": 8345,
      "అపూర్వ": 8346,
      "అజ్ఞాన": 8347,
      "అగ్రహా": 8348,
      "అంటున్న": 8349,
      "అఘో": 8350,
      "అతీతంగా": 8351,
      "ఆక": 8352,
      "ఆన": 8353,
      "ఆస": 8354,
      "ఆహ": 8355,
      "ఆని": 8356,
      "ఆరా": 8357,
      "ఆమా": 8358,
      "ఆప్": 8359,
      "ఆగు": 8360,
      "ఆలి": 8361,
      "ఆదు": 8362,
      "ఆడే": 8363,
      "ఆభి": 8364,
      "ఆశ్": 8365,
      "ఆపై": 8366,
      "ఆకులు": 8367,
      "ఆక్స్": 8368,
      "ఆమాత్రం": 8369,
      "ఆలకి": 8370,
      "ఆక్షన్": 8371,
      "ఆడో": 8372,
      "ఆడిన": 8373,
      "ఆళ్ల": 8374,
      "ఆపురా": 8375,
      "ఆండీ": 8376,
      "ఆనాడు": 8377,
      "ఆపాది": 8378,
      "ఆఫర్": 8379,
      "ఆభర": 8380,
      "ఆపాడు": 8381,
      "ఆవుగా": 8382,
      "ఆదరణ": 8383,
      "ఇగ": 8384,
      "ఇన": 8385,
      "ఇస": 8386,
      "ఇహ": 8387,
      "ఇర్": 8388,
      "ఇరు": 8389,
      "ఇను": 8390,
      "ఇస్త": 8391,
      "ఇప్ప": 8392,
      "ఇమి": 8393,
      "ఇష్": 8394,
      "ఇమ్మ": 8395,
      "ఇవ్వు": 8396,
      "ఇన్స్": 8397,
      "ఇస్తున్నా": 8398,
      "ఇళ్ళు": 8399,
      "ఇస్తూ": 8400,
      "ఇమాన్": 8401,
      "ఇళ్లకు": 8402,
      "ఇదొక": 8403,
      "ఇదంతా": 8404,
      "ఇరాన్": 8405,
      "ఈర్": 8406,
      "ఈట్": 8407,
      "ఈడి": 8408,
      "ఈపా": 8409,
      "ఈసా": 8410,
      "ఈడ్": 8411,
      "ఈజీ": 8412,
      "ఈసాంగ్": 8413,
      "ఈడే": 8414,
      "ఈగో": 8415,
      "ఈలాంటి": 8416,
      "ఈపుడు": 8417,
      "ఈడొ": 8418,
      "ఈయని": 8419,
      "ఈరమ": 8420,
      "ఈవెంట్": 8421,
      "ఉత": 8422,
      "ఉమా": 8423,
      "ఉరి": 8424,
      "ఉప్": 8425,
      "ఉప్ప": 8426,
      "ఉప్పు": 8427,
      "ఉట్టి": 8428,
      "ఉద్య": 8429,
      "ఉందే": 8430,
      "ఉండు": 8431,
      "ఉంధి": 8432,
      "ఉదయం": 8433,
      "ఉసురు": 8434,
      "ఉప్పె": 8435,
      "ఉషతో": 8436,
      "ఊరే": 8437,
      "ఊగి": 8438,
      "ఊపే": 8439,
      "ఊహే": 8440,
      "ఊసులు": 8441,
      "ఊరంటే": 8442,
      "ఊదర": 8443,
      "ఊపిరి": 8444,
      "ఎరా": 8445,
      "ఎయి": 8446,
      "ఎము": 8447,
      "ఎంగా": 8448,
      "ఎటు": 8449,
      "ఎండ్": 8450,
      "ఎట్లా": 8451,
      "ఎల్లి": 8452,
      "ఎఫ్": 8453,
      "ఎట్టా": 8454,
      "ఎరువు": 8455,
      "ఎధవ": 8456,
      "ఎక్కా": 8457,
      "ఎడిపి": 8458,
      "ఎంచుకున్న": 8459,
      "ఎనీవే": 8460,
      "ఎకరా": 8461,
      "ఎద్దులు": 8462,
      "ఎస్టీ": 8463,
      "ఎద్దుగా": 8464,
      "ఏక": 8465,
      "ఏడ": 8466,
      "ఏనా": 8467,
      "ఏరా": 8468,
      "ఏమ్": 8469,
      "ఏవీ": 8470,
      "ఏప్పుడు": 8471,
      "ఏయ్": 8472,
      "ఏమైన": 8473,
      "ఏంచే": 8474,
      "ఏమను": 8475,
      "ఏబీ": 8476,
      "ఏన్నో": 8477,
      "ఏసుకొని": 8478,
      "ఏందయ్యా": 8479,
      "ఏకైక": 8480,
      "ఐదే": 8481,
      "ఐపోయింది": 8482,
      "ఐటెం": 8483,
      "ఒట్టు": 8484,
      "ఒల్లు": 8485,
      "ఒళ్లు": 8486,
      "ఒత్తి": 8487,
      "ఒంటె": 8488,
      "ఒళ్ళో": 8489,
      "ఒదిగిన": 8490,
      "ఓరు": 8491,
      "ఓక్క": 8492,
      "ఓసారి": 8493,
      "ఓటే": 8494,
      "ఓపక్క": 8495,
      "ఓలమ్మ": 8496,
      "కబా": 8497,
      "కపో": 8498,
      "కతో": 8499,
      "కవర్": 8500,
      "కప్పుడు": 8501,
      "కలకు": 8502,
      "కంటా": 8503,
      "కల్లో": 8504,
      "కరిగి": 8505,
      "కన్య": 8506,
      "కట్టే": 8507,
      "కట్టా": 8508,
      "కవల": 8509,
      "కతర్": 8510,
      "కన్నో": 8511,
      "కషా": 8512,
      "కన్యా": 8513,
      "కట్టాలి": 8514,
      "కమల": 8515,
      "కంట్లో": 8516,
      "కఠి": 8517,
      "కమల్": 8518,
      "కంచం": 8519,
      "కశ్మీర్": 8520,
      "ఖన్": 8521,
      "ఖ్యా": 8522,
      "ఖమ్మ": 8523,
      "ఖాలు": 8524,
      "ఖచూడు": 8525,
      "ఖయుగ": 8526,
      "గర": 8527,
      "గృ": 8528,
      "గది": 8529,
      "గడా": 8530,
      "గండి": 8531,
      "గటి": 8532,
      "గల్ల": 8533,
      "గద్ద": 8534,
      "గలం": 8535,
      "గయ్": 8536,
      "గణి": 8537,
      "గరాలు": 8538,
      "గడియ": 8539,
      "గనుక": 8540,
      "గట్రా": 8541,
      "గమ్యా": 8542,
      "గణంలో": 8543,
      "గళం": 8544,
      "గదర్శి": 8545,
      "గనక": 8546,
      "గదికి": 8547,
      "ఘ్": 8548,
      "ఘర్": 8549,
      "ఘట్ట": 8550,
      "ఙ్": 8551,
      "చవ": 8552,
      "చరా": 8553,
      "చలే": 8554,
      "చప్ప": 8555,
      "చందు": 8556,
      "చస్తారు": 8557,
      "చడమే": 8558,
      "చనువు": 8559,
      "చండాలం": 8560,
      "ఛే": 8561,
      "ఛ్": 8562,
      "ఛని": 8563,
      "ఛండాలంగా": 8564,
      "జమ": 8565,
      "జహ": 8566,
      "జొ": 8567,
      "జలు": 8568,
      "జట్": 8569,
      "జ్య": 8570,
      "జల్": 8571,
      "జంగ్": 8572,
      "జస్ట్": 8573,
      "జలం": 8574,
      "జరీ": 8575,
      "జగ్గు": 8576,
      "జర్మ": 8577,
      "జవాన్": 8578,
      "జలక్": 8579,
      "జతక": 8580,
      "టొ": 8581,
      "టని": 8582,
      "టరు": 8583,
      "టచ్": 8584,
      "ట్రీ": 8585,
      "ట్రి": 8586,
      "టవరు": 8587,
      "ఠు": 8588,
      "డంట": 8589,
      "డను": 8590,
      "డబ్": 8591,
      "డ్రి": 8592,
      "డతలు": 8593,
      "డర్లు": 8594,
      "డొక": 8595,
      "డయ్యాడు": 8596,
      "ఢు": 8597,
      "ఢర్మ": 8598,
      "ణము": 8599,
      "ణమి": 8600,
      "ణమని": 8601,
      "తని": 8602,
      "తగా": 8603,
      "తడి": 8604,
      "తంది": 8605,
      "తన్న": 8606,
      "తలి": 8607,
      "తయి": 8608,
      "తకొ": 8609,
      "తన్ని": 8610,
      "తలేదు": 8611,
      "తమే": 8612,
      "తలె": 8613,
      "తమ్మా": 8614,
      "తల్లు": 8615,
      "తల్ని": 8616,
      "తలకి": 8617,
      "తకండి": 8618,
      "తరాలు": 8619,
      "తములో": 8620,
      "తపించే": 8621,
      "తలేదే": 8622,
      "థూ": 8623,
      "థో": 8624,
      "థలు": 8625,
      "థీర్": 8626,
      "థసార": 8627,
      "దహ": 8628,
      "దనా": 8629,
      "దవా": 8630,
      "దము": 8631,
      "దంచి": 8632,
      "దణ్": 8633,
      "దస్త్": 8634,
      "దరీ": 8635,
      "దండు": 8636,
      "దంగ": 8637,
      "దర్మ": 8638,
      "దక్కా": 8639,
      "దగిన": 8640,
      "ధృ": 8641,
      "ధన్": 8642,
      "ధ్ర": 8643,
      "ధగ్": 8644,
      "ధస్త్": 8645,
      "ధసభ": 8646,
      "నస్": 8647,
      "నట్": 8648,
      "నవా": 8649,
      "నవి": 8650,
      "నచ్": 8651,
      "నన్ని": 8652,
      "నైన": 8653,
      "నల్లో": 8654,
      "నవర": 8655,
      "నంటూ": 8656,
      "నచ్చే": 8657,
      "నందుకు": 8658,
      "నొక్క": 8659,
      "నడిచి": 8660,
      "నొక": 8661,
      "నరుకు": 8662,
      "పణ": 8663,
      "పధ": 8664,
      "పకా": 8665,
      "పలా": 8666,
      "పకో": 8667,
      "పము": 8668,
      "పత్": 8669,
      "పన్ని": 8670,
      "పరే": 8671,
      "పగి": 8672,
      "పవె": 8673,
      "పరం": 8674,
      "పల్ల": 8675,
      "పశ్": 8676,
      "పత్య": 8677,
      "పదో": 8678,
      "పద్దు": 8679,
      "పడానికి": 8680,
      "పటా": 8681,
      "పనో": 8682,
      "పబ్బు": 8683,
      "పంతో": 8684,
      "పటే": 8685,
      "పత్తి": 8686,
      "పదాన్ని": 8687,
      "పన్నె": 8688,
      "పంతం": 8689,
      "పల్లోకి": 8690,
      "పందులు": 8691,
      "పత్తులు": 8692,
      "పద్యం": 8693,
      "పట్నా": 8694,
      "పనులకు": 8695,
      "ఫణి": 8696,
      "ఫ్రం": 8697,
      "ఫకీరు": 8698,
      "బన్": 8699,
      "బగా": 8700,
      "బండ": 8701,
      "బయ్య": 8702,
      "బయో": 8703,
      "బల్లి": 8704,
      "బచ్చా": 8705,
      "బన్నీ": 8706,
      "బడితే": 8707,
      "బ్యో": 8708,
      "బడాలి": 8709,
      "బందం": 8710,
      "బతకాలి": 8711,
      "బరద": 8712,
      "భృ": 8713,
      "భట్ట": 8714,
      "భయ్య": 8715,
      "భవాల": 8716,
      "మయ": 8717,
      "మలు": 8718,
      "మమా": 8719,
      "మంట": 8720,
      "మలా": 8721,
      "మసి": 8722,
      "మది": 8723,
      "మండి": 8724,
      "మరే": 8725,
      "మన్నారు": 8726,
      "మచ్చి": 8727,
      "మయ్య": 8728,
      "మయు": 8729,
      "మండ్": 8730,
      "మందా": 8731,
      "మంచే": 8732,
      "మళ్లి": 8733,
      "మక్కి": 8734,
      "మగాడి": 8735,
      "మకర": 8736,
      "మషం": 8737,
      "మమత": 8738,
      "మవుతుంది": 8739,
      "మరుగ": 8740,
      "మటలు": 8741,
      "మంచో": 8742,
      "మమల్ని": 8743,
      "మయిన": 8744,
      "మధనా": 8745,
      "మల్లారెడ్డి": 8746,
      "యమ": 8747,
      "యమా": 8748,
      "యమ్": 8749,
      "యంటే": 8750,
      "యతే": 8751,
      "యరే": 8752,
      "యక్ష": 8753,
      "యైన": 8754,
      "యకుండా": 8755,
      "యంటూ": 8756,
      "యంతో": 8757,
      "యడమే": 8758,
      "యర్లు": 8759,
      "రథ": 8760,
      "రర": 8761,
      "రసి": 8762,
      "రరే": 8763,
      "రయ్య": 8764,
      "రమ్మ": 8765,
      "రబాబు": 8766,
      "రరెడ్డి": 8767,
      "రమ్య": 8768,
      "రకర": 8769,
      "రధం": 8770,
      "రప్పా": 8771,
      "రప్పి": 8772,
      "రగిలి": 8773,
      "రవ్ర": 8774,
      "రన్నది": 8775,
      "రష్యా": 8776,
      "లక": 8777,
      "లయ": 8778,
      "లౌ": 8779,
      "లవి": 8780,
      "లనీ": 8781,
      "లన్ని": 8782,
      "లండ": 8783,
      "లల్ల": 8784,
      "లవ్వు": 8785,
      "లనం": 8786,
      "లకీ": 8787,
      "లచ్చ": 8788,
      "లవడం": 8789,
      "లజన": 8790,
      "ల్యూ": 8791,
      "లభ్యం": 8792,
      "లపాకి": 8793,
      "లజ్జ": 8794,
      "లంచం": 8795,
      "లగూడ": 8796,
      "లయ్యేలా": 8797,
      "ళీ": 8798,
      "ళని": 8799,
      "ళాలు": 8800,
      "ళయోగి": 8801,
      "వత": 8802,
      "వడి": 8803,
      "వలో": 8804,
      "వసి": 8805,
      "వంచి": 8806,
      "వసూ": 8807,
      "వంగా": 8808,
      "వత్త": 8809,
      "వలేక": 8810,
      "వశం": 8811,
      "వల్లి": 8812,
      "వల్లు": 8813,
      "వళ్లు": 8814,
      "వక్ర": 8815,
      "వడో": 8816,
      "వంతం": 8817,
      "వట్లేదు": 8818,
      "వస్తోంది": 8819,
      "వడివి": 8820,
      "వంటీ": 8821,
      "వగై": 8822,
      "శక": 8823,
      "శర": 8824,
      "శపి": 8825,
      "శతా": 8826,
      "శతో": 8827,
      "శమే": 8828,
      "శకం": 8829,
      "శ్యం": 8830,
      "షారు": 8831,
      "షార్": 8832,
      "షులు": 8833,
      "సస్": 8834,
      "సలే": 8835,
      "సలి": 8836,
      "సదు": 8837,
      "సమి": 8838,
      "సత్": 8839,
      "సక్క": 8840,
      "సంచ": 8841,
      "సల్ల": 8842,
      "సహి": 8843,
      "సజ్": 8844,
      "సైన": 8845,
      "సంద్ర": 8846,
      "సనమ": 8847,
      "సంచు": 8848,
      "సళ్ళు": 8849,
      "సరికి": 8850,
      "సల్లే": 8851,
      "సచ్చే": 8852,
      "సన్యా": 8853,
      "సవాల్": 8854,
      "సద్ధం": 8855,
      "సత్వ": 8856,
      "సక్రమ": 8857,
      "సల్ట్": 8858,
      "సలీం": 8859,
      "సదనా": 8860,
      "హన్": 8861,
      "హ్ర": 8862,
      "హవి": 8863,
      "హారు": 8864,
      "హరూ": 8865,
      "హయాం": 8866,
      "హద్దు": 8867,
      "హులు": 8868,
      "హమారా": 8869,
      "హత్తుకు": 8870,
      "హస్యం": 8871,
      "హస్తం": 8872,
      "హత్యాచారం": 8873,
      "ాన": 8874,
      "ాలే": 8875,
      "ుత్": 8876,
      "ులకు": 8877,
      "ులను": 8878,
      "ూడ": 8879,
      "ూస్": 8880,
      "ూరు": 8881,
      "ూప్": 8882,
      "ూఫ్": 8883,
      "ెర": 8884,
      "ెలు": 8885,
      "ెకి": 8886,
      "ెమ్మ": 8887,
      "ెందుకు": 8888,
      "ేలు": 8889,
      "ేంద్ర": 8890,
      "ైర్": 8891,
      "ైన్స్": 8892,
      "ొంది": 8893,
      "ొతి": 8894,
      "ొద్ద": 8895,
      "ొద్దని": 8896,
      "ోంది": 8897,
      "ోత్త": 8898,
      "ోత్స": 8899,
      "ౌట్": 8900,
      "ౢు": 8901,
      "౦ది": 8902,
      "౦టి": 8903,
      "న్రా": 8904,
      "న్త్": 8905,
      "న్షన్": 8906,
      "నిర": 8907,
      "నినా": 8908,
      "నిమా": 8909,
      "నివే": 8910,
      "నికే": 8911,
      "నితో": 8912,
      "నిండా": 8913,
      "నిధి": 8914,
      "నివ్వ": 8915,
      "నిత్య": 8916,
      "నికృ": 8917,
      "నిషా": 8918,
      "నిశే": 8919,
      "నిషూ": 8920,
      "నిప్పులు": 8921,
      "స్స": 8922,
      "స్మి": 8923,
      "స్కె": 8924,
      "స్టింగ్": 8925,
      "స్కుంటే": 8926,
      "స్పది": 8927,
      "స్పతి": 8928,
      "స్వర్గం": 8929,
      "స్క్రా": 8930,
      "ర్యో": 8931,
      "ర్షా": 8932,
      "ర్డిన": 8933,
      "ర్యాన్ని": 8934,
      "ర్చిన": 8935,
      "రుం": 8936,
      "రురు": 8937,
      "రుంద": 8938,
      "రుచి": 8939,
      "రుండి": 8940,
      "రుజు": 8941,
      "రులకు": 8942,
      "రులను": 8943,
      "రుద్దు": 8944,
      "రుద్ర": 8945,
      "రుణ్ణి": 8946,
      "ందవ": 8947,
      "ందొ": 8948,
      "ందంట": 8949,
      "ందన్న": 8950,
      "ందనీ": 8951,
      "ంద్రా": 8952,
      "ందమ్మా": 8953,
      "లుతున్న": 8954,
      "కుడ": 8955,
      "కురు": 8956,
      "కుంటి": 8957,
      "కుమ్మ": 8958,
      "కుతుంది": 8959,
      "కుల్లో": 8960,
      "కులతో": 8961,
      "కుడికి": 8962,
      "కుంటె": 8963,
      "కుర్ర": 8964,
      "కులోకి": 8965,
      "కుమ్మి": 8966,
      "కుమారు": 8967,
      "కుంకు": 8968,
      "కుదిరి": 8969,
      "కుదురు": 8970,
      "కుతురు": 8971,
      "నాద": 8972,
      "నాక్": 8973,
      "నాంది": 8974,
      "నాసి": 8975,
      "నాప్": 8976,
      "నాకో": 8977,
      "నాతి": 8978,
      "నామి": 8979,
      "నాదే": 8980,
      "నాకీ": 8981,
      "నారూ": 8982,
      "నాయు": 8983,
      "నాగే": 8984,
      "నాశి": 8985,
      "నామం": 8986,
      "నాయాల": 8987,
      "నాచురల్": 8988,
      "నామీదొ": 8989,
      "గాల్ల": 8990,
      "గాడీ": 8991,
      "గాలకు": 8992,
      "గాలని": 8993,
      "గారీ": 8994,
      "గాందీ": 8995,
      "ట్వి": 8996,
      "ట్లతో": 8997,
      "ట్లేదా": 8998,
      "ట్మెంట్": 8999,
      "ట్వంటీ": 9000,
      "రాస": 9001,
      "రాలా": 9002,
      "రావి": 9003,
      "రామి": 9004,
      "రాష్": 9005,
      "రాంగ్": 9006,
      "రాకే": 9007,
      "రాలకు": 9008,
      "రాబో": 9009,
      "రాయాలి": 9010,
      "రావచ్చు": 9011,
      "రాదని": 9012,
      "రాళ్ల": 9013,
      "రాత్మ": 9014,
      "రాసాడు": 9015,
      "రాయాల": 9016,
      "రాగార": 9017,
      "రావాలంటే": 9018,
      "మాఘ": 9019,
      "మాకి": 9020,
      "మాయా": 9021,
      "మాత్": 9022,
      "మాకూ": 9023,
      "మాలకు": 9024,
      "మాష్ట": 9025,
      "మాల్లే": 9026,
      "మాషా": 9027,
      "మాటికి": 9028,
      "మారణ": 9029,
      "మారాయి": 9030,
      "మారాడు": 9031,
      "మాకెందుకు": 9032,
      "మాచెర్ల": 9033,
      "ంటం": 9034,
      "ంటోడు": 9035,
      "క్చ": 9036,
      "క్కొని": 9037,
      "క్చర్": 9038,
      "రిడీ": 9039,
      "రించాలి": 9040,
      "రిజర్": 9041,
      "రియాక్ట్": 9042,
      "రిప్లై": 9043,
      "రిమూవ్": 9044,
      "వారా": 9045,
      "వాలే": 9046,
      "వాము": 9047,
      "వాసు": 9048,
      "వాగ్": 9049,
      "వాతా": 9050,
      "వానం": 9051,
      "వారూ": 9052,
      "వాయే": 9053,
      "వాకం": 9054,
      "వాదాలు": 9055,
      "వారని": 9056,
      "వాదం": 9057,
      "వాసన": 9058,
      "వామిత్రు": 9059,
      "డుచు": 9060,
      "డులకు": 9061,
      "డుగ్గ": 9062,
      "డుతున్నాయి": 9063,
      "కిన": 9064,
      "కిల": 9065,
      "కిచి": 9066,
      "కిడ్": 9067,
      "కిక్క": 9068,
      "కితే": 9069,
      "కియం": 9070,
      "కిందా": 9071,
      "కించే": 9072,
      "కిషన్": 9073,
      "కింగే": 9074,
      "కాట": 9075,
      "కాన": 9076,
      "కాకి": 9077,
      "కాళ్ళ": 9078,
      "కారో": 9079,
      "కాస్ట్": 9080,
      "కాయ్": 9081,
      "కాసుకో": 9082,
      "కాదో": 9083,
      "కాసర్": 9084,
      "కాకుంటే": 9085,
      "కాలంగా": 9086,
      "కాంతి": 9087,
      "కారులు": 9088,
      "కాంటె": 9089,
      "కామం": 9090,
      "కాళి": 9091,
      "కానుక": 9092,
      "కాలేడు": 9093,
      "కాబట్ట": 9094,
      "కానొ": 9095,
      "కారాన్ని": 9096,
      "కాపురం": 9097,
      "కాంట్రా": 9098,
      "కావలసింది": 9099,
      "కాంచన": 9100,
      "నును": 9101,
      "నుండీ": 9102,
      "నుమారు": 9103,
      "నుయేల్": 9104,
      "నుంచో": 9105,
      "నుగుణంగా": 9106,
      "డిట్": 9107,
      "డిలా": 9108,
      "డించ": 9109,
      "డింగ్": 9110,
      "డిజా": 9111,
      "డిస్టర్": 9112,
      "డిపుడు": 9113,
      "డివో": 9114,
      "డిప్పుడే": 9115,
      "డిగితే": 9116,
      "లోచ": 9117,
      "లోతె": 9118,
      "లోయ్": 9119,
      "లోపం": 9120,
      "లోకులు": 9121,
      "లోనో": 9122,
      "లోకల్": 9123,
      "లోకాలు": 9124,
      "లోఫర్": 9125,
      "లోపాలు": 9126,
      "లోకాన్ని": 9127,
      "లోవడ": 9128,
      "లోకువ": 9129,
      "లాం": 9130,
      "లాట": 9131,
      "లారు": 9132,
      "లాకు": 9133,
      "లాల్": 9134,
      "లాలి": 9135,
      "లాయి": 9136,
      "లాటి": 9137,
      "లాడితే": 9138,
      "లాపురం": 9139,
      "లాంజ": 9140,
      "లాంటో": 9141,
      "లాయర్లు": 9142,
      "ందిలే": 9143,
      "్యులు": 9144,
      "ల్సి": 9145,
      "ల్నీ": 9146,
      "ల్వే": 9147,
      "ల్సింది": 9148,
      "స్తొంది": 9149,
      "చిత": 9150,
      "చిను": 9151,
      "చిప్ప": 9152,
      "చిట్ట": 9153,
      "చిపో": 9154,
      "చించి": 9155,
      "చిన్నారు": 9156,
      "చిత్త": 9157,
      "చివర": 9158,
      "చిన్నో": 9159,
      "చిత్తు": 9160,
      "చిత్రీ": 9161,
      "సిక": 9162,
      "సిన్": 9163,
      "సిర్": 9164,
      "సిల్": 9165,
      "సిన్న": 9166,
      "సిట్ట": 9167,
      "సించ": 9168,
      "సిస్ట": 9169,
      "సిడీ": 9170,
      "సిత్త": 9171,
      "సిరీ": 9172,
      "సిబి": 9173,
      "సిద్దు": 9174,
      "సిందా": 9175,
      "సిపెట్టి": 9176,
      "సిక్రి": 9177,
      "సిమెంట్": 9178,
      "సివరి": 9179,
      "సిడర్": 9180,
      "సిక్కో": 9181,
      "సిల్లీ": 9182,
      "సింగిడి": 9183,
      "సిందె": 9184,
      "సిడికే": 9185,
      "ప్స్": 9186,
      "ప్లో": 9187,
      "ప్లె": 9188,
      "ప్టర్": 9189,
      "ప్తాడు": 9190,
      "ప్ట్స్": 9191,
      "ప్లీస్": 9192,
      "న్నట్టు": 9193,
      "న్నమః": 9194,
      "లేవ": 9195,
      "లేరి": 9196,
      "లేలా": 9197,
      "లేడా": 9198,
      "లేమి": 9199,
      "లేధా": 9200,
      "లేషన్": 9201,
      "లేకుండ": 9202,
      "లేవని": 9203,
      "లేటుగా": 9204,
      "లేదిక": 9205,
      "చేకూ": 9206,
      "చేయ్య": 9207,
      "చేత్త": 9208,
      "చేటు": 9209,
      "చేయు": 9210,
      "చేరాలి": 9211,
      "చేర్చిన": 9212,
      "గుం": 9213,
      "గుంట": 9214,
      "గును": 9215,
      "గులా": 9216,
      "గుచ్చి": 9217,
      "గుణం": 9218,
      "గుద్దు": 9219,
      "గుణా": 9220,
      "గుద్ధ": 9221,
      "లిక": 9222,
      "లిని": 9223,
      "లిటీ": 9224,
      "లియం": 9225,
      "లిస్ట్": 9226,
      "లియో": 9227,
      "లిగాడు": 9228,
      "లించారు": 9229,
      "లిక్కర్": 9230,
      "లిబన్": 9231,
      "విప్ర": 9232,
      "వించ": 9233,
      "విరె": 9234,
      "విజు": 9235,
      "విజ్": 9236,
      "వింటా": 9237,
      "వికులు": 9238,
      "వింటారు": 9239,
      "విజ్ఞ": 9240,
      "విజ్ఞా": 9241,
      "విడిపి": 9242,
      "విచిత్రం": 9243,
      "విక్రమ": 9244,
      "విదంగా": 9245,
      "విక్టరీ": 9246,
      "విసుగు": 9247,
      "విరక్తి": 9248,
      "విముక్తి": 9249,
      "వివర్జి": 9250,
      "విలియం": 9251,
      "వున": 9252,
      "వునా": 9253,
      "వుతు": 9254,
      "వుత్": 9255,
      "వుండా": 9256,
      "వుంటా": 9257,
      "వుందే": 9258,
      "వుందో": 9259,
      "వుంటాయి": 9260,
      "వుసురు": 9261,
      "న్నానీ": 9262,
      "న్నాయని": 9263,
      "దిర్": 9264,
      "దియ్య": 9265,
      "దినం": 9266,
      "దించు": 9267,
      "దుల": 9268,
      "దుకు": 9269,
      "దుగా": 9270,
      "దురా": 9271,
      "దుకా": 9272,
      "దుష్": 9273,
      "దురాధ": 9274,
      "దురాశ": 9275,
      "బారి": 9276,
      "బాసు": 9277,
      "బాణం": 9278,
      "బాబొ": 9279,
      "బాక్స్": 9280,
      "బాషా": 9281,
      "బాణీ": 9282,
      "బావుండేది": 9283,
      "బాపనో": 9284,
      "ట్టనులే": 9285,
      "మీణ": 9286,
      "మీన": 9287,
      "మీని": 9288,
      "మీరా": 9289,
      "మీవి": 9290,
      "మీకూ": 9291,
      "మీపై": 9292,
      "మీకంటే": 9293,
      "మీయొక్క": 9294,
      "మీరైనా": 9295,
      "మీకేం": 9296,
      "మీలాంటాళ్ళ": 9297,
      "మీదుగా": 9298,
      "డాడీ": 9299,
      "పాధ": 9300,
      "పారా": 9301,
      "పాక్": 9302,
      "పావు": 9303,
      "పాపి": 9304,
      "పాతా": 9305,
      "పాడే": 9306,
      "పాట్లు": 9307,
      "పాళ్లు": 9308,
      "పాపాలు": 9309,
      "సాల": 9310,
      "సాలే": 9311,
      "సాము": 9312,
      "సాటు": 9313,
      "సాఫీ": 9314,
      "సామర్": 9315,
      "సాంబ": 9316,
      "సాగర్": 9317,
      "సాగిన": 9318,
      "సాఫ్ట్": 9319,
      "సాద్యం": 9320,
      "సాడని": 9321,
      "సాధువు": 9322,
      "సాలోచ": 9323,
      "ంతన": 9324,
      "ంతర": 9325,
      "ంత్రి": 9326,
      "చార": 9327,
      "చార్": 9328,
      "చారి": 9329,
      "చాడు": 9330,
      "చాటు": 9331,
      "చాయ్": 9332,
      "చానె": 9333,
      "చావదు": 9334,
      "ప్రద": 9335,
      "ప్రభ": 9336,
      "ప్రవర్": 9337,
      "ప్రవన్": 9338,
      "ప్రక్రి": 9339,
      "ప్రకార": 9340,
      "ప్రథా": 9341,
      "ప్రభావి": 9342,
      "ప్రదర్శన": 9343,
      "నీలా": 9344,
      "నీకో": 9345,
      "నీకంటే": 9346,
      "నీయమ్మ": 9347,
      "నీమీదొ": 9348,
      "కోక": 9349,
      "కోకు": 9350,
      "కోలా": 9351,
      "కోటీ": 9352,
      "కోకుండా": 9353,
      "కోలేని": 9354,
      "కోపాల": 9355,
      "కోత్స": 9356,
      "కోవటం": 9357,
      "కోగలడు": 9358,
      "కోటాలు": 9359,
      "కోకిల": 9360,
      "యిస్": 9361,
      "యించి": 9362,
      "తుగా": 9363,
      "తునే": 9364,
      "తుంటా": 9365,
      "తుంధ": 9366,
      "తుల్లే": 9367,
      "తుపాకీ": 9368,
      "తుఫాన్": 9369,
      "తుపల్లోకి": 9370,
      "తుందొ": 9371,
      "నేమ్": 9372,
      "నేనూ": 9373,
      "నేనంటే": 9374,
      "నేజ్మెంట్": 9375,
      "నేచురల్": 9376,
      "ముసి": 9377,
      "మున్న": 9378,
      "మువీ": 9379,
      "ముతో": 9380,
      "ముస్తా": 9381,
      "ముమ్మా": 9382,
      "ముల్లె": 9383,
      "ముద్దా": 9384,
      "ముహు": 9385,
      "ముంచాడు": 9386,
      "ముత్యా": 9387,
      "ముందరు": 9388,
      "ముత్తా": 9389,
      "ముక్టు": 9390,
      "మురళ": 9391,
      "ముదిరి": 9392,
      "ముద్రా": 9393,
      "ముత్యాలు": 9394,
      "ముసుగు": 9395,
      "ముట్టనులే": 9396,
      "చెసి": 9397,
      "చెవు": 9398,
      "చెల్ల": 9399,
      "చెమ్మ": 9400,
      "చెంచా": 9401,
      "చెట్టా": 9402,
      "చెడ్డ": 9403,
      "చెయాలి": 9404,
      "చెక్కి": 9405,
      "చెసింది": 9406,
      "చెసారు": 9407,
      "చెత్తా": 9408,
      "చెవిలో": 9409,
      "సుడ": 9410,
      "సులో": 9411,
      "సున్నా": 9412,
      "సుండ": 9413,
      "సుట్టు": 9414,
      "సుహా": 9415,
      "సుట్టా": 9416,
      "సురక": 9417,
      "సుబ్రహ్మ": 9418,
      "సుత్రు": 9419,
      "సుఖి": 9420,
      "సుందర్": 9421,
      "సుకుంటున్నాడు": 9422,
      "సుథీర్": 9423,
      "సునామి": 9424,
      "సుదిర్": 9425,
      "తిను": 9426,
      "తిలో": 9427,
      "తిసి": 9428,
      "తిట్ట": 9429,
      "తిప్పు": 9430,
      "తిట్టే": 9431,
      "తిడితే": 9432,
      "తిరస్": 9433,
      "తియ్యండి": 9434,
      "తిన్నావా": 9435,
      "గ్లీ": 9436,
      "పోని": 9437,
      "పోస్తే": 9438,
      "పోస్ట్": 9439,
      "పోకుండా": 9440,
      "పోసుకు": 9441,
      "పోట్లా": 9442,
      "పోస్తున్నారు": 9443,
      "పోయాం": 9444,
      "పోలేని": 9445,
[...]
